<pad>	0
<s>	0
</s>	0
<unk>	0
0.	-0
▁0.	-1
▁0.0	-2
▁0.5	-3
▁0.2	-4
▁0.7	-5
▁|	-6
▁O	-7
▁0.00	-8
▁0.6	-9
▁0.3	-10
2.	-11
▁0.50	-12
▁0.8	-13
▁0.1	-14
3.	-15
▁S	-16
▁0.4	-17
:3.	-18
▁0.9	-19
▁C	-20
2;	-21
▁a	-22
▁N	-23
▁i	-24
:2.	-25
1;	-26
▁e	-27
▁b	-28
▁1	-29
▁P	-30
4;	-31
▁A	-32
▁c	-33
▁0.75	-34
▁0.25	-35
8;	-36
4.	-37
6;	-38
▁h	-39
3;	-40
▁f	-41
▁T	-42
▁H	-43
▁9	-44
:4.	-45
0;	-46
▁B	-47
1.	-48
5;	-49
▁d	-50
lo	-51
low	-52
▁g	-53
0.0	-54
9;	-55
7;	-56
▁k	-57
▁0.33	-58
gh	-59
hi	-60
high	-61
▁0.67	-62
:2;	-63
▁R	-64
:1;	-65
▁90.0	-66
id	-67
mid	-68
▁r	-69
Ge	-70
vlow	-71
▁W	-72
ho	-73
ll	-74
ull	-75
▁bg	-76
▁rho	-77
▁hull	-78
▁CN	-79
▁NN	-80
▁SG	-81
▁WP	-82
▁NP	-83
▁I	-84
▁F	-85
▁j	-86
:1	-87
Dy	-88
▁0.83	-89
.0	-90
▁0.17	-91
Er	-92
▁7	-93
▁0.62	-94
La	-95
▁M	-96
▁0.38	-97
▁8	-98
▁0.26	-99
▁0.74	-100
▁0.24	-101
▁0.76	-102
:2	-103
▁0.12	-104
▁6	-105
▁0.88	-106
▁Se	-107
▁0.37	-108
▁0.63	-109
▁0.87	-110
▁0.13	-111
▁Ge	-112
:1.	-113
Ga	-114
▁As	-115
▁0.34	-116
▁0.66	-117
:4;	-118
▁0.40	-119
▁0.60	-120
▁0.80	-121
:3.1	-122
▁0.20	-123
▁0.18	-124
▁0.82	-125
:3.2	-126
▁0.84	-127
▁0.16	-128
▁0.86	-129
Zn	-130
▁0.14	-131
▁0.27	-132
▁0.36	-133
▁Si	-134
▁0.64	-135
▁0.73	-136
▁12	-137
▁0.39	-138
▁0.61	-139
▁0.68	-140
▁0.23	-141
▁0.77	-142
▁0.32	-143
▁0.35	-144
.00	-145
▁0.81	-146
▁0.30	-147
▁0.65	-148
▁0.19	-149
▁5	-150
▁0.59	-151
▁0.70	-152
▁0.42	-153
▁0.41	-154
▁0.58	-155
▁0.72	-156
▁0.28	-157
▁0.10	-158
▁0.90	-159
▁1.00	-160
▁0.79	-161
▁0.21	-162
▁Cl	-163
▁0.92	-164
▁0.08	-165
▁Br	-166
▁0.89	-167
:2.9	-168
▁0.15	-169
▁0.85	-170
▁0.78	-171
:2.8	-172
▁0.22	-173
▁0.11	-174
▁0.69	-175
▁0.31	-176
▁Rh	-177
▁0.29	-178
▁0.71	-179
▁0.09	-180
2;+	-181
▁7.	-182
▁0.91	-183
:3.3	-184
:3.0	-185
:2.7	-186
▁Ni	-187
▁K	-188
▁0.07	-189
▁0.57	-190
▁0.93	-191
▁0.43	-192
▁Al	-193
▁Y	-194
▁Dy	-195
▁Fe	-196
▁Co	-197
As	-198
vhigh	-199
Zr	-200
▁OX	-201
▁0.49	-202
:3.4	-203
:3.5	-204
▁Ba	-205
▁0.51	-206
▁0.56	-207
▁Er	-208
18;	-209
Si	-210
▁0.44	-211
▁0.54	-212
▁0.46	-213
▁0.45	-214
▁0.99	-215
▁0.06	-216
▁0.01	-217
▁0.94	-218
▁0.95	-219
▁Tb	-220
Li	-221
▁Ho	-222
▁Sm	-223
Tb	-224
▁0.55	-225
▁La	-226
▁0.05	-227
▁Ce	-228
Sm	-229
▁0.48	-230
▁Nd	-231
Rh	-232
▁0.52	-233
:3.6	-234
▁Na	-235
mm	-236
▁Pd	-237
▁0.04	-238
▁Cs	-239
▁0.96	-240
▁8.	-241
▁Tm	-242
▁In	-243
▁Pr	-244
Ni	-245
▁0.53	-246
▁0.47	-247
Tm	-248
▁0.98	-249
▁0.02	-250
12	-251
▁Rb	-252
▁0.97	-253
:2.6	-254
▁Ga	-255
▁0.03	-256
Na	-257
2.8	-258
▁Ca	-259
Nd	-260
▁2	-261
▁Mn	-262
Ho	-263
Pr	-264
3;+	-265
▁Sr	-266
:3.7	-267
:3.8	-268
Sr	-269
2.7	-270
2.9	-271
:3	-272
:4	-273
26;	-274
:3.9	-275
Ce	-276
▁16	-277
:+	-278
Se	-279
:2.5	-280
Mn	-281
:2.4	-282
▁9.	-283
2.3	-284
Fe	-285
:4.0	-286
:2.3	-287
In	-288
2.4	-289
▁Pt	-290
▁Sb	-291
▁Sc	-292
1;+	-293
Co	-294
▁5.	-295
▁4.	-296
Ba	-297
Rb	-298
Pd	-299
Ca	-300
▁Te	-301
▁6.	-302
:6;	-303
▁Zn	-304
▁Bi	-305
Sc	-306
14;	-307
▁Mg	-308
CD	-309
Mg	-310
▁Cu	-311
2.0	-312
9.	-313
▁Sn	-314
Sb	-315
2.5	-316
▁Ti	-317
▁10	-318
Pt	-319
2.6	-320
:8;	-321
3.0	-322
2;-	-323
3.1	-324
:4.1	-325
▁Ru	-326
Al	-327
▁Cd	-328
▁3	-329
Cs	-330
▁Hf	-331
▁Ir	-332
▁Zr	-333
1.9	-334
Ru	-335
Th	-336
uhigh	-337
2.2	-338
Ti	-339
:4.4	-340
-3	-341
Cu	-342
3.2	-343
:2.2	-344
▁Li	-345
Sn	-346
:4.2	-347
:3;	-348
▁Pm	-349
18	-350
▁Th	-351
:2.0	-352
Cl	-353
Br	-354
:4.5	-355
18;18;	-356
Pu	-357
2;3	-358
▁Hg	-359
Ir	-360
Hf	-361
▁Ag	-362
:4.3	-363
1.7	-364
Te	-365
Pm	-366
▁m	-367
▁10.	-368
1;-	-369
▁Tl	-370
▁Pu	-371
▁l	-372
▁Pb	-373
Cd	-374
▁Au	-375
▁Nb	-376
▁V	-377
10	-378
Bi	-379
mmm	-380
▁120.0	-381
:1.9	-382
▁Cr	-383
5.	-384
14	-385
24	-386
3;-	-387
Tl	-388
:1.7	-389
8;3	-390
:12;	-391
▁n	-392
Hg	-393
0;2	-394
2/	-395
16	-396
7.	-397
4;3	-398
4/	-399
Nb	-400
▁14	-401
Au	-402
Pb	-403
:4.6	-404
▁4	-405
2;4	-406
:18;	-407
Cr	-408
2;2	-409
3.3	-410
Ag	-411
▁11	-412
▁Mo	-413
1.8	-414
2.1	-415
1.6	-416
8.	-417
▁Ta	-418
4;+	-419
▁U	-420
Np	-421
0;3	-422
:2.1	-423
4;4	-424
▁15	-425
▁3.	-426
▁Np	-427
▁Os	-428
26;26;	-429
Os	-430
6.	-431
Ta	-432
26	-433
▁60.0	-434
2;-2;+	-435
▁166	-436
:-	-437
1.5	-438
3;+3;+	-439
▁Ac	-440
Gd	-441
▁13	-442
20	-443
3.5	-444
Lu	-445
:4.7	-446
14;14;	-447
:26;	-448
:4.8	-449
:1.6	-450
:1.8	-451
Mo	-452
15	-453
Eu	-454
:6	-455
3.4	-456
3.6	-457
:24;	-458
6;3	-459
:14;	-460
▁123	-461
:+2;+	-462
1;+1;+	-463
16;	-464
:4.9	-465
32	-466
5;+	-467
▁Be	-468
▁18	-469
_1	-470
8;4	-471
12;	-472
Ac	-473
:18;18;18;	-474
2_1	-475
▁20	-476
9;3	-477
:16;	-478
Pa	-479
17	-480
4;2	-481
7;3	-482
0;4	-483
5;3	-484
▁11.	-485
:8	-486
28	-487
▁7.6	-488
17;	-489
▁Pa	-490
19	-491
0.9	-492
13	-493
3;2	-494
▁14.	-495
8;2	-496
:+3;+	-497
1;3	-498
6;4	-499
▁7.7	-500
15;	-501
▁7.5	-502
48	-503
ulow	-504
3;3	-505
11	-506
:1.5	-507
:3.19;	-508
:3.18;	-509
▁Gd	-510
▁o	-511
:3.16;	-512
:3.13;	-513
:3.23;	-514
:3.17;	-515
:3.15;	-516
1;-2;+	-517
:3.14;	-518
:3.20;	-519
:3.24;	-520
:3.25;	-521
▁Lu	-522
▁59.	-523
:3.11;	-524
:3.10;	-525
▁60.	-526
:3.27;	-527
:3.12;	-528
:3.22;	-529
:3.21;	-530
22	-531
19;	-532
:3.26;	-533
BCD	-534
▁7.8	-535
:3.28;	-536
62	-537
30	-538
36	-539
DE	-540
:3.09;	-541
▁109.	-542
:3.29;	-543
:3.08;	-544
▁7.9	-545
▁90.	-546
:2.91;	-547
:2.77;	-548
:2.90;	-549
-1	-550
21	-551
:2.89;	-552
2;+2;+	-553
▁Eu	-554
▁8.9	-555
▁7.4	-556
:2.92;	-557
:2.84;	-558
:3.30;	-559
25	-560
▁4.0	-561
Be	-562
:2.93;	-563
:2.88;	-564
2;32;3	-565
:2.81;	-566
:2.94;	-567
:2.78;	-568
:2.87;	-569
:2.76;	-570
:3.31;	-571
:2.95;	-572
:2.79;	-573
:3.32;	-574
:2.98;	-575
:2.85;	-576
:2.97;	-577
▁164	-578
:3.07;	-579
:2.80;	-580
:2.83;	-581
:2.96;	-582
▁89.	-583
2;42;4	-584
:2.86;	-585
:3.33;	-586
:2.82;	-587
:2.74;	-588
:26;26;26;	-589
:2.99;	-590
▁8.0	-591
3.7	-592
:5	-593
▁6.9	-594
▁8.8	-595
:2.75;	-596
:3.06;	-597
:3.34;	-598
:3.00;	-599
:3.02;	-600
:3.35;	-601
1;4	-602
▁19	-603
:3.01;	-604
:2.73;	-605
:3.36;	-606
▁9.0	-607
:3.04;	-608
:3.05;	-609
▁6.8	-610
:3.03;	-611
1.4	-612
:3.37;	-613
:18;18;18;18;18;	-614
:2.72;	-615
29	-616
:3.38;	-617
:3.39;	-618
:3.46;	-619
23	-620
:2.71;	-621
2_1/	-622
:3.40;	-623
:3.51;	-624
:3.41;	-625
:3.47;	-626
3;4	-627
:3.48;	-628
:3.50;	-629
:2.70;	-630
:3.52;	-631
▁3.9	-632
:3.53;	-633
:3.45;	-634
:3.42;	-635
2;-2	-636
Tc	-637
:3.43;	-638
:2.69;	-639
:3.49;	-640
:3.54;	-641
▁9.5	-642
:3.44;	-643
:3.56;	-644
40	-645
:3.55;	-646
▁15.	-647
27	-648
:2.68;	-649
▁7.0	-650
4;-	-651
▁5.9	-652
:3.60;	-653
:2.67;	-654
▁5.5	-655
▁8.5	-656
:3.61;	-657
:3.59;	-658
▁8.7	-659
▁6.7	-660
:3.58;	-661
:3.57;	-662
:14;14;14;	-663
▁7.3	-664
:3.63;	-665
:3.62;	-666
▁5.7	-667
:10;	-668
9;4	-669
▁5.6	-670
26;2	-671
▁5.8	-672
5;4	-673
:3.65;	-674
7;4	-675
:3.64;	-676
1;2	-677
▁Tc	-678
:2.61;	-679
:2.60;	-680
▁139	-681
:2.66;	-682
:2.64;	-683
:3.66;	-684
:2.65;	-685
:3.67;	-686
:2.59;	-687
▁8.4	-688
3.8	-689
:3.68;	-690
:2.62;	-691
▁8.3	-692
9;2	-693
:2.58;	-694
:2.38;	-695
▁109.5	-696
:2.63;	-697
:20;2	-698
mc	-699
:2.47;	-700
2;-2;-2;+	-701
:2.46;	-702
:3.69;	-703
1.0	-704
_3	-705
:20;	-706
:2.45;	-707
:2.35;	-708
:2.39;	-709
:2.50;	-710
1.3	-711
:2.44;	-712
:2.37;	-713
:12	-714
:2.51;	-715
▁17	-716
:2.36;	-717
:2.57;	-718
3;-2;+	-719
:3.71;	-720
:3.70;	-721
▁9.4	-722
8;38;3	-723
▁80.	-724
:2.43;	-725
:+5;+	-726
:2.48;	-727
:2.42;	-728
3;+3	-729
:2.49;	-730
▁9.7	-731
:2.40;	-732
0;5	-733
:2.56;	-734
:2.54;	-735
:2.52;	-736
:2.55;	-737
▁99.	-738
▁8.6	-739
:3.78;	-740
:3.79;	-741
:3.83;	-742
:2.41;	-743
▁6.6	-744
:2.34;	-745
:3.80;	-746
:3.72;	-747
:3.82;	-748
18;18	-749
:2.53;	-750
:3.81;	-751
13;	-752
:3.73;	-753
:3.76;	-754
:3.77;	-755
:2.32;	-756
:2.33;	-757
:3.75;	-758
:3.84;	-759
▁33.6	-760
▁9.8	-761
:3.74;	-762
2.77;	-763
▁Re	-764
▁17.	-765
:3.87;	-766
-62	-767
▁9.6	-768
3.9	-769
:3.97;	-770
2.78;	-771
▁189	-772
4;44;4	-773
▁9.9	-774
0;2.8	-775
:3.85;	-776
:3.92;	-777
2.79;	-778
:3.98;	-779
Re	-780
-4	-781
:3.86;	-782
:3.90;	-783
:3.91;	-784
6;5	-785
CDE	-786
▁10.0	-787
▁6.5	-788
:2.31;	-789
:3.93;	-790
:3.96;	-791
:3.88;	-792
:3.95;	-793
▁6.0	-794
2;2.9	-795
:3.99;	-796
:+1;+	-797
▁16.	-798
1;2.8	-799
▁3.8	-800
:3.94;	-801
:4.00;	-802
0;2.9	-803
5;2.8	-804
:4.05;	-805
▁5.4	-806
:3.89;	-807
:4.03;	-808
5;2	-809
2.39;	-810
1;2.9	-811
2.38;	-812
:4.04;	-813
:2.26;	-814
2.76;	-815
:2.27;	-816
:4.06;	-817
3;2.8	-818
12;12;	-819
Yb	-820
:4.02;	-821
2;2.8	-822
▁9.3	-823
▁40	-824
:2.25;	-825
:4.12;	-826
:4.07;	-827
2.36;	-828
:4.11;	-829
3;2.9	-830
1;-1;+	-831
▁38	-832
:2.24;	-833
:4.10;	-834
:4.01;	-835
:4.09;	-836
:2.30;	-837
2.37;	-838
3;2.4	-839
4;2.8	-840
:+3;+3;+	-841
:4.08;	-842
:2.28;	-843
0;2.0	-844
:4.13;	-845
:0.9	-846
▁119.	-847
:1.4	-848
▁22	-849
▁Yb	-850
2;2.0	-851
2.34;	-852
:4.14;	-853
▁36	-854
:4.16;	-855
:4.15;	-856
2.35;	-857
:1.3	-858
14;14	-859
▁q	-860
▁33.5	-861
1;2.0	-862
:22;2	-863
:+3;-	-864
▁65	-865
:4.17;	-866
20;	-867
2;2.4	-868
1.99;	-869
:34;3	-870
:2.29;	-871
4;2.9	-872
▁60.1	-873
▁4.5	-874
5;2.9	-875
▁4.9	-876
1;2.4	-877
3;2.0	-878
▁Cmmm	-879
:-1;+	-880
7;2.8	-881
:4.18;	-882
▁4.8	-883
▁5.3	-884
▁6.4	-885
:2.23;	-886
:15;	-887
0;2.4	-888
mcm	-889
▁4.7	-890
:4.19;	-891
26;26	-892
:2.01;	-893
:26;2	-894
:4.21;	-895
▁4.6	-896
▁77.	-897
:4.20;	-898
EF	-899
7;2.9	-900
6;2.8	-901
4;2.4	-902
▁26	-903
:1.70;	-904
:48;	-905
▁p	-906
1.2	-907
9;2.8	-908
:4.22;	-909
6_3	-910
5;2.0	-911
8;2.8	-912
▁4.4	-913
7;2.0	-914
9;2.9	-915
▁5.0	-916
4;5	-917
:17;	-918
▁4.3	-919
:2.22;	-920
2.33;	-921
▁24	-922
4.1	-923
7;2.5	-924
:4.45;	-925
5;2.4	-926
:1.99;	-927
:4.46;	-928
▁148	-929
:+2;+2;+	-930
:2.06;	-931
1;-2	-932
:4.44;	-933
:4.47;	-934
▁106.	-935
6;2.9	-936
:4.43;	-937
2.74;	-938
:2.00;	-939
:4.42;	-940
:4.23;	-941
3.18;	-942
2;2.5	-943
▁18.	-944
2.75;	-945
:2.21;	-946
:1.71;	-947
7;2.4	-948
1.96;	-949
▁u	-950
:4.24;	-951
:4.25;	-952
1.98;	-953
3.14;	-954
BC	-955
0;20;2	-956
:32;3	-957
:38;3	-958
:4.53;	-959
2;+2	-960
▁6.3	-961
:+4;+	-962
8;2.9	-963
▁105.	-964
3.16;	-965
:2.08;	-966
0;2.6	-967
:4.48;	-968
:-3;-	-969
:4.49;	-970
:4.26;	-971
1;2.5	-972
2.32;	-973
:2.04;	-974
▁120.	-975
:4.52;	-976
:2.02;	-977
▁10.5	-978
2.26;	-979
▁10.7	-980
▁10.4	-981
:1.73;	-982
:2.20;	-983
:4.50;	-984
4.0	-985
:4.41;	-986
:1.96;	-987
:4.51;	-988
3.17;	-989
2.73;	-990
1;-2;-2;+	-991
18;2	-992
2.28;	-993
:1.98;	-994
:2.05;	-995
0;2.5	-996
2.31;	-997
2;2.6	-998
3.15;	-999
26;26;26	-1000
3;+3;+3	-1001
▁28	-1002
:4.27;	-1003
4;2.0	-1004
9;2.0	-1005
1;-1;-	-1006
:4.54;	-1007
3.09;	-1008
1;2.6	-1009
:4.40;	-1010
▁58.	-1011
:4.55;	-1012
:4.28;	-1013
26;3	-1014
:36;3	-1015
3.13;	-1016
:4.29;	-1017
▁10.8	-1018
3.12;	-1019
:2.07;	-1020
4;34;3	-1021
▁v	-1022
5;-	-1023
6;2.4	-1024
4.2	-1025
8;5	-1026
:1.97;	-1027
:18;18;18;18;18	-1028
:2.03;	-1029
3.19;	-1030
2.27;	-1031
:2.19;	-1032
:4.39;	-1033
4.8	-1034
:1.72;	-1035
:1.95;	-1036
:4.38;	-1037
▁30	-1038
2.29;	-1039
▁10.3	-1040
5;2.5	-1041
3;2.5	-1042
:4.30;	-1043
4.7	-1044
:4.56;	-1045
:4.32;	-1046
3.08;	-1047
:4.31;	-1048
:4.37;	-1049
▁10.6	-1050
3.11;	-1051
:1.94;	-1052
9;2.5	-1053
:32;	-1054
:24	-1055
:23;2	-1056
▁76.	-1057
4;2.5	-1058
▁10.9	-1059
▁Amm	-1060
3.10;	-1061
:44;4	-1062
:2.09;	-1063
2;5	-1064
:4.33;	-1065
:1.74;	-1066
:4.57;	-1067
2.30;	-1068
:14;14;14;14	-1069
:36;	-1070
8;2.4	-1071
8;2.5	-1072
7.0	-1073
▁90.1	-1074
▁48	-1075
:1.0	-1076
:4.58;	-1077
3.26;	-1078
:4.36;	-1079
:28;	-1080
6;2.5	-1081
:1.93;	-1082
7;2	-1083
4.9	-1084
1.97;	-1085
1.95;	-1086
:4.35;	-1087
4;2.6	-1088
▁3.7	-1089
4.3	-1090
:4.34;	-1091
6_3/	-1092
▁89.9	-1093
▁59.9	-1094
9;2.6	-1095
▁t	-1096
:+2;-	-1097
▁s	-1098
BCDE	-1099
3.20;	-1100
:1.69;	-1101
:2.10;	-1102
3;2.6	-1103
:2.18;	-1104
▁44	-1105
:4.59;	-1106
▁19.	-1107
4.4	-1108
▁80.4	-1109
▁75.	-1110
▁11.0	-1111
3.24;	-1112
:30;3	-1113
▁Cm	-1114
:1.76;	-1115
5;2.6	-1116
▁64	-1117
:24;2	-1118
5.0	-1119
4.6	-1120
am	-1121
-6	-1122
4.5	-1123
:4.60;	-1124
:1.77;	-1125
2.25;	-1126
:28;2	-1127
2;22	-1128
▁88.	-1129
:42;42;4	-1130
▁160	-1131
2.72;	-1132
▁56.	-1133
9.0	-1134
:2.12;	-1135
▁71	-1136
3.21;	-1137
▁x	-1138
:26;26;26;26	-1139
3.25;	-1140
4;1.6	-1141
▁107.	-1142
3.22;	-1143
▁w	-1144
:4.61;	-1145
3.23;	-1146
9;2.4	-1147
▁Pn	-1148
:35;3	-1149
5;1.5	-1150
8;2.6	-1151
▁Immm	-1152
▁55.	-1153
▁85.	-1154
:2.11;	-1155
▁99.6	-1156
6;56;5	-1157
7;2.6	-1158
:32;32;3	-1159
▁79.	-1160
3;-2	-1161
4;+4	-1162
6;2.0	-1163
1;+1;+1;+	-1164
:1.92;	-1165
▁70.	-1166
:2.14;	-1167
:2.17;	-1168
2.24;	-1169
▁3.6	-1170
8;2.0	-1171
:2.15;	-1172
1.1	-1173
▁Imm	-1174
:4.62;	-1175
6/	-1176
3;1.7	-1177
▁3.5	-1178
6;2.6	-1179
:2.13;	-1180
:2.16;	-1181
▁74	-1182
:1.75;	-1183
▁Fm	-1184
▁191	-1185
▁25.	-1186
▁225	-1187
2.71;	-1188
▁78.	-1189
3;-2;-2;+	-1190
2;32	-1191
1.94;	-1192
3.27;	-1193
▁63	-1194
3;+2;+	-1195
3.28;	-1196
16;16;	-1197
:1.91;	-1198
2;1.7	-1199
:9;	-1200
2.21;	-1201
2;-2;-2	-1202
:4.63;	-1203
▁Cmcm	-1204
:42;4	-1205
2.70;	-1206
3.07;	-1207
4;44	-1208
▁97.	-1209
▁57.	-1210
4_3	-1211
▁212	-1212
4_332	-1213
▁11.7	-1214
▁86.	-1215
▁98.	-1216
0;20	-1217
2.23;	-1218
▁11.6	-1219
15;15;	-1220
:1.78;	-1221
▁56	-1222
3;+2	-1223
:1.90;	-1224
4;+3	-1225
:13;	-1226
▁95.	-1227
▁11.5	-1228
▁108.	-1229
2;42	-1230
:4.64;	-1231
:14;14;14;14;14;	-1232
2.20;	-1233
:1.89;	-1234
▁76	-1235
:38;4	-1236
▁60.2	-1237
5;1.7	-1238
▁11.8	-1239
2.77	-1240
▁96.	-1241
:16	-1242
:26;26;26;26;26	-1243
▁62	-1244
4;3.0	-1245
:1.88;	-1246
4;1.7	-1247
:1.2	-1248
:4.65;	-1249
3;+1;+	-1250
▁32	-1251
ma	-1252
0.7	-1253
6;+	-1254
3;3.0	-1255
2.22;	-1256
17;17;	-1257
2.14;	-1258
:12;12;12;	-1259
11;	-1260
▁72	-1261
:33;3	-1262
2.18;	-1263
5;3.0	-1264
2.76	-1265
4;1.5	-1266
:1.68;	-1267
6;3.0	-1268
:37;3	-1269
-31	-1270
0;50;5	-1271
:19;	-1272
3.29;	-1273
▁11.4	-1274
2.79	-1275
2;22;2	-1276
1.93;	-1277
10;	-1278
2;3.0	-1279
:0.98;	-1280
▁33.7	-1281
▁87.	-1282
▁ABCD	-1283
▁118	-1284
:38;38;3	-1285
2.78	-1286
▁146.	-1287
:22;	-1288
1;3.0	-1289
:4.66;	-1290
▁60	-1291
:5;	-1292
:1.85;	-1293
▁Imma	-1294
3;5	-1295
0;3.0	-1296
:1.87;	-1297
2.11;	-1298
▁25	-1299
0;30;3	-1300
2.19;	-1301
2;34;3	-1302
▁Pnma	-1303
2;+3	-1304
2.75	-1305
:0.99;	-1306
5;1.6	-1307
4;+2	-1308
6;1.7	-1309
▁11.9	-1310
:-1;-1;+	-1311
▁118.	-1312
60	-1313
3.11	-1314
▁13.9	-1315
:1.67;	-1316
▁115.	-1317
:+2;+2;+2;+	-1318
3;+4	-1319
▁21	-1320
▁12.3	-1321
▁12.0	-1322
19;2	-1323
3;-3;-	-1324
3.10	-1325
▁68.	-1326
▁33.4	-1327
▁12.4	-1328
:+1;+1;+	-1329
:1.86;	-1330
0;1.7	-1331
2.74	-1332
:4.68;	-1333
:4.69;	-1334
▁47	-1335
:4.67;	-1336
▁11.3	-1337
▁20.	-1338
▁90.2	-1339
▁Pmc	-1340
▁12.6	-1341
▁12.2	-1342
▁12.5	-1343
▁69.	-1344
bm	-1345
1.55;1.5	-1346
▁13.0	-1347
7;1.7	-1348
:4.70;	-1349
2.73	-1350
2;+1;+	-1351
▁12.8	-1352
1;1.9	-1353
:46;4	-1354
8.0	-1355
4;22	-1356
:18;2	-1357
:26;3	-1358
3.13	-1359
:41;4	-1360
3.12	-1361
3.14	-1362
:1.79;	-1363
▁50	-1364
_12	-1365
3;1.6	-1366
▁80	-1367
:32;2	-1368
8;1.7	-1369
8;28;2	-1370
▁65.	-1371
:4.77;	-1372
7;37;3	-1373
1;-2;+4	-1374
▁12.9	-1375
▁13.3	-1376
:4.74;	-1377
:4.76;	-1378
:+2;+3;+	-1379
2.72	-1380
:40;3	-1381
:4.72;	-1382
1;1.7	-1383
mbm	-1384
▁127	-1385
:4.82;	-1386
▁Pmmm	-1387
:4.79;	-1388
:4.71;	-1389
▁55	-1390
▁13.4	-1391
2;1.9	-1392
:4.78;	-1393
2.71	-1394
:18;18;18;18	-1395
:1.60;	-1396
▁100.	-1397
3.18	-1398
3.30;	-1399
▁89.8	-1400
:31;3	-1401
:4.81;	-1402
3.15	-1403
:1.61;	-1404
56	-1405
:1.62;	-1406
:4.80;	-1407
:4.75;	-1408
:4.85;	-1409
▁13.5	-1410
▁13.2	-1411
6;36;3	-1412
2;1.8	-1413
:40;4	-1414
:1.50;	-1415
:29;3	-1416
▁59.8	-1417
:4.86;	-1418
▁27.	-1419
:4.83;	-1420
2;-2;-2;-2;+	-1421
:4.84;	-1422
2.70	-1423
1;-2;+5;+	-1424
:-1;-	-1425
:1.66;	-1426
34	-1427
▁146	-1428
▁154.1	-1429
4;+1;+	-1430
:4.87;	-1431
19;19;	-1432
:4.73;	-1433
:30;	-1434
0;1.9	-1435
9;1.7	-1436
3.31;	-1437
▁77.1	-1438
3.19	-1439
▁119	-1440
2;38;3	-1441
:4.88;	-1442
▁46	-1443
:10	-1444
12;12	-1445
3.17	-1446
:43;4	-1447
7;5	-1448
:-1;+1;+	-1449
▁Pmm	-1450
:1.84;	-1451
:44;44;4	-1452
:1.53;	-1453
:+3;+1;+	-1454
3.16	-1455
▁14.0	-1456
2.13;	-1457
▁13.6	-1458
:1.64;	-1459
:30;2	-1460
▁36.	-1461
:1.83;	-1462
:4.89;	-1463
▁115	-1464
▁119.9	-1465
▁187	-1466
:-3;-3;+3;+	-1467
▁167.	-1468
▁Ib	-1469
▁13.8	-1470
1;-2;+3	-1471
:29;2	-1472
▁13.7	-1473
2.12;	-1474
:25;2	-1475
0.99;	-1476
▁67.	-1477
1.64;1.6	-1478
:14;14;14;14;14	-1479
:4.96;	-1480
1;1.8	-1481
:14;14;	-1482
2.10;	-1483
▁54	-1484
:28;3	-1485
:4.90;	-1486
▁59.7	-1487
2.33	-1488
3.32;	-1489
▁Pbam	-1490
▁42	-1491
▁7.67	-1492
:4.95;	-1493
▁90.3	-1494
:+3;+2;+	-1495
:39;3	-1496
2.17;	-1497
8.2	-1498
▁193	-1499
▁17.3	-1500
5;5	-1501
▁7.65	-1502
:21;2	-1503
:1.65;	-1504
3;-2;-2	-1505
▁174	-1506
:+3;-2;+	-1507
4;24	-1508
:3.82	-1509
:4.91;	-1510
▁7.62	-1511
▁60.3	-1512
▁7.68	-1513
▁7.71	-1514
:20;20;20;2	-1515
2;-2;+4	-1516
▁99	-1517
:4.98;	-1518
:3.84	-1519
▁52	-1520
2.26	-1521
:26;26;2	-1522
▁116	-1523
▁66.	-1524
▁7.66	-1525
▁163	-1526
▁7.70	-1527
:1.80;	-1528
:40;	-1529
3.33;	-1530
:3.62	-1531
2.32	-1532
:1.38;	-1533
:4.92;	-1534
:3.61	-1535
:3.83	-1536
▁Ibam	-1537
2.28	-1538
:4.99;	-1539
6;1.5	-1540
:4.93;	-1541
mmc	-1542
9;3.0	-1543
:3.60	-1544
6;-	-1545
9;5	-1546
:3.54	-1547
▁110.	-1548
:3.55	-1549
:3.98	-1550
8;3.0	-1551
▁7.64	-1552
:3.59	-1553
:3.95	-1554
2_13	-1555
:3.96	-1556
▁59.6	-1557
▁156	-1558
:3.81	-1559
:22;3	-1560
2.27	-1561
:3.58	-1562
2.38	-1563
:3.87	-1564
▁Pc	-1565
2.35	-1566
:3.94	-1567
1;5	-1568
▁14.5	-1569
:3.99	-1570
▁7.74	-1571
3;-3	-1572
▁194	-1573
3.20	-1574
:3.80	-1575
6;1.8	-1576
▁7.59	-1577
:3.88	-1578
▁7.63	-1579
:3.97	-1580
2.39	-1581
▁7.53	-1582
▁7.58	-1583
2.37	-1584
2.15;	-1585
:3.65	-1586
4;+4;+	-1587
:3.90	-1588
▁7.69	-1589
▁7.60	-1590
:32;32;32;32;3	-1591
2.31	-1592
:3.79	-1593
:1.54;	-1594
:1.49;	-1595
1;-2;-2	-1596
▁3.3	-1597
6_	-1598
:4.05	-1599
2.79;2.8	-1600
:19;2	-1601
3.25	-1602
:3.66	-1603
:4.97;	-1604
2.34	-1605
3.36;	-1606
:3.63	-1607
:4.94;	-1608
:42;42;42;42;4	-1609
:4.11	-1610
:42;3	-1611
▁7.73	-1612
▁198	-1613
0;1.8	-1614
:3.69	-1615
:3.89	-1616
:4.14	-1617
▁7.51	-1618
4;24;2	-1619
:3.78	-1620
▁14.8	-1621
▁7.72	-1622
3.26	-1623
:3.86	-1624
▁7.76	-1625
:7;	-1626
0;40;4	-1627
▁26.	-1628
▁7.49	-1629
:3.64	-1630
:1.51;	-1631
1.54;1.5	-1632
:3.85	-1633
:4.12	-1634
:4.00	-1635
▁14.9	-1636
:1.63;	-1637
:3.76	-1638
2.25	-1639
2.29	-1640
3.35;	-1641
:3.68	-1642
:3.70	-1643
2.16;	-1644
:48;4	-1645
▁89.7	-1646
▁3.4	-1647
▁7.56	-1648
▁8.19	-1649
0;22	-1650
:4.03	-1651
▁7.57	-1652
▁8.27	-1653
▁116.	-1654
5;+5;+	-1655
3.34;	-1656
:4.02	-1657
6;46;4	-1658
322	-1659
▁109.4	-1660
:3.67	-1661
:3.92	-1662
:4.06	-1663
:3.91	-1664
▁182	-1665
6_322	-1666
8;1.8	-1667
8;34;3	-1668
▁7.75	-1669
3.24	-1670
7;3.0	-1671
:+4;-	-1672
:4.07	-1673
:3.77	-1674
2;+4	-1675
▁131.8	-1676
6;1.6	-1677
▁90.4	-1678
2.36	-1679
:4.09	-1680
:4.16	-1681
:1.82;	-1682
▁34	-1683
:3.72	-1684
:4.13	-1685
▁59.5	-1686
:3.74	-1687
:18;18;	-1688
▁Cc	-1689
▁117.	-1690
▁102.9	-1691
:3.56	-1692
9;1.8	-1693
▁7.61	-1694
:+3;+3;-	-1695
:3.53	-1696
:3.75	-1697
:1.52;	-1698
▁35.	-1699
:3.93	-1700
▁14.7	-1701
:4.15	-1702
▁7.50	-1703
0;34;3	-1704
▁7.42	-1705
▁7.52	-1706
3;20	-1707
:3.71	-1708
:4.08	-1709
▁7.45	-1710
▁7.88	-1711
:3.57	-1712
▁7.41	-1713
▁7.78	-1714
3.23	-1715
8;1.6	-1716
▁4.07	-1717
▁7.31	-1718
▁7.81	-1719
3.28	-1720
▁7.55	-1721
▁7.40	-1722
3.21	-1723
▁7.85	-1724
:16;16;	-1725
:4.04	-1726
▁4.05	-1727
▁7.87	-1728
▁8.20	-1729
▁3.0	-1730
2.30	-1731
:4.17	-1732
:4.01	-1733
:3.73	-1734
▁4.06	-1735
▁8.24	-1736
:4.10	-1737
2;-2;-	-1738
▁7.23	-1739
8;38	-1740
2;1.6	-1741
3.27	-1742
0;20;	-1743
4;1.8	-1744
2.23	-1745
7;1.8	-1746
▁7.29	-1747
:3.52	-1748
:1.81;	-1749
▁7.47	-1750
▁Cmc	-1751
▁7.54	-1752
▁7.80	-1753
:1.59;	-1754
3.22	-1755
5;1.8	-1756
▁8.08	-1757
▁7.84	-1758
▁7.98	-1759
▁8.21	-1760
▁7.27	-1761
▁7.77	-1762
▁7.97	-1763
▁8.23	-1764
▁8.31	-1765
▁8.02	-1766
▁8.01	-1767
7;1.6	-1768
▁8.25	-1769
▁7.30	-1770
▁7.83	-1771
▁149.	-1772
▁7.26	-1773
nmm	-1774
▁129	-1775
▁8.33	-1776
▁8.28	-1777
▁7.38	-1778
:-1;-1;-	-1779
2.22	-1780
3.37;	-1781
▁7.39	-1782
▁7.21	-1783
:3.51	-1784
6.0	-1785
▁7.79	-1786
16;16	-1787
▁7.20	-1788
:+2;+4;+	-1789
:+2;-2;+	-1790
2.24	-1791
▁8.15	-1792
▁9.02	-1793
:1.55;	-1794
▁7.24	-1795
▁8.29	-1796
:7	-1797
▁7.89	-1798
▁7.36	-1799
▁8.04	-1800
▁8.30	-1801
▁4.08	-1802
▁8.88	-1803
3.29	-1804
:+1;-	-1805
▁7.44	-1806
▁7.96	-1807
▁7.82	-1808
▁7.90	-1809
▁8.26	-1810
:3.50	-1811
:41;3	-1812
▁8.05	-1813
▁8.07	-1814
:4.21	-1815
▁8.11	-1816
▁7.99	-1817
▁8.14	-1818
▁8.85	-1819
▁7.46	-1820
▁7.86	-1821
▁7.91	-1822
:3.47	-1823
▁165.	-1824
▁7.18	-1825
▁8.22	-1826
8;38;4	-1827
▁7.28	-1828
▁8.13	-1829
▁8.92	-1830
▁4.11	-1831
▁7.35	-1832
▁7.43	-1833
▁7.48	-1834
▁8.87	-1835
▁8.93	-1836
▁7.37	-1837
▁8.96	-1838
▁4.03	-1839
▁7.33	-1840
▁7.32	-1841
▁7.92	-1842
▁37.	-1843
▁170.	-1844
2.21	-1845
▁8.98	-1846
▁8.06	-1847
▁14.6	-1848
▁8.00	-1849
▁4.14	-1850
▁8.17	-1851
DEF	-1852
▁120.1	-1853
2.10	-1854
:3.46	-1855
▁8.90	-1856
3;+3;+3;+3	-1857
:4.18	-1858
▁15.7	-1859
▁33.8	-1860
▁4.09	-1861
▁4.13	-1862
▁8.32	-1863
1;1.6	-1864
▁7.22	-1865
:3.49	-1866
▁9.03	-1867
▁9.05	-1868
:+2;+1;+	-1869
▁8.12	-1870
▁8.99	-1871
▁6.90	-1872
2.40;	-1873
▁7.93	-1874
2;+2;+2	-1875
▁8.16	-1876
▁7.16	-1877
0;50;4	-1878
:3.48	-1879
▁8.36	-1880
2;38	-1881
3;+4;+	-1882
:4.19	-1883
▁7.25	-1884
1.50;	-1885
▁4.12	-1886
▁23	-1887
:3.45	-1888
▁9.01	-1889
2.78;2.8	-1890
▁68	-1891
▁8.40	-1892
▁7.34	-1893
▁9.00	-1894
▁9.04	-1895
▁6.91	-1896
▁4.15	-1897
▁6.93	-1898
▁7.94	-1899
▁9.18	-1900
▁29.	-1901
▁8.10	-1902
▁27	-1903
▁8.09	-1904
▁8.91	-1905
▁8.94	-1906
▁8.34	-1907
▁9.07	-1908
▁7.95	-1909
▁9.22	-1910
:3.44	-1911
▁6.86	-1912
3;1.8	-1913
CDEF	-1914
:50;4	-1915
▁7.19	-1916
3;+3;-	-1917
3.38;	-1918
▁8.97	-1919
▁7.10	-1920
▁6.88	-1921
▁4.10	-1922
▁8.03	-1923
:4.20	-1924
▁7.15	-1925
▁9.06	-1926
16;18;	-1927
:4.22	-1928
2.19	-1929
▁8.18	-1930
▁9.20	-1931
2;20	-1932
-43	-1933
▁6.89	-1934
1;-2;+5	-1935
:+5;-	-1936
▁9.24	-1937
▁8.38	-1938
▁9.21	-1939
2.12	-1940
▁59.4	-1941
▁8.95	-1942
▁9.11	-1943
3;-2;+3	-1944
:3.29	-1945
▁6.94	-1946
3.09	-1947
:45;4	-1948
▁90.5	-1949
3;23;2	-1950
▁29	-1951
:11;	-1952
▁6.98	-1953
:4.23	-1954
4;-4;+	-1955
:-2;+	-1956
▁15.0	-1957
▁4.16	-1958
▁7.17	-1959
▁143.1	-1960
8;36;3	-1961
▁77.0	-1962
:14;17;	-1963
▁4.02	-1964
▁6.92	-1965
▁8.86	-1966
▁80.5	-1967
▁125.	-1968
▁7.08	-1969
:+2;+2;-	-1970
1.99;2.0	-1971
▁28.	-1972
:3.43	-1973
▁4.04	-1974
1.49;	-1975
▁7.13	-1976
:39;4	-1977
:4.25	-1978
42	-1979
▁7.14	-1980
▁8.35	-1981
19;19	-1982
2.11	-1983
▁6.87	-1984
▁9.08	-1985
5;35;3	-1986
4;26	-1987
▁9.16	-1988
:3.42	-1989
15;15	-1990
▁8.37	-1991
▁8.41	-1992
▁8.89	-1993
▁9.09	-1994
44	-1995
▁33.3	-1996
0;32	-1997
▁167	-1998
:20;20;2	-1999
:4.26	-2000
0;1.6	-2001
:+3;-3;-	-2002
▁7.03	-2003
▁7.11	-2004
▁8.84	-2005
:4.24	-2006
▁7.12	-2007
▁9.23	-2008
:+3;-1;+	-2009
:18	-2010
▁31	-2011
▁6.95	-2012
▁9.15	-2013
▁9.17	-2014
:38;38;4	-2015
:20;20;	-2016
▁9.13	-2017
▁8.82	-2018
:3.31	-2019
:3.41	-2020
:47;4	-2021
▁9.29	-2022
▁7.09	-2023
1;-2;+2	-2024
:+2;-1;+	-2025
:3.28	-2026
▁8.45	-2027
3;1.9	-2028
:3.37	-2029
▁3.98	-2030
▁6.85	-2031
▁186	-2032
▁8.39	-2033
▁3.96	-2034
▁7.00	-2035
▁9.45	-2036
3;+1	-2037
▁4.21	-2038
:3.13	-2039
3.39;	-2040
▁3.94	-2041
▁9.19	-2042
:22;22;2	-2043
:3.39	-2044
:3.40	-2045
31	-2046
2;34	-2047
▁148.	-2048
▁6.96	-2049
▁9.10	-2050
▁87	-2051
▁8.42	-2052
▁8.49	-2053
▁9.14	-2054
▁9.28	-2055
▁6.84	-2056
▁6.97	-2057
▁8.83	-2058
▁89.6	-2059
3.48;	-2060
▁3.97	-2061
1;41;4	-2062
▁8.51	-2063
▁9.38	-2064
2;26	-2065
:3.26	-2066
▁8.79	-2067
▁9.54	-2068
2.77;2.8	-2069
▁7.02	-2070
▁6.79	-2071
:3.30	-2072
▁8.43	-2073
▁99.5	-2074
8;28	-2075
▁3.95	-2076
▁9.48	-2077
▁7.05	-2078
6;6	-2079
:23;	-2080
:0.97;	-2081
▁9.27	-2082
2;+1	-2083
▁5.63	-2084
3.08	-2085
▁5.60	-2086
:+5;+1;+	-2087
2.20	-2088
▁4.17	-2089
▁9.12	-2090
▁9.58	-2091
▁Im	-2092
3;-2;+4	-2093
14;17;	-2094
▁5.61	-2095
:14;13;	-2096
▁5.98	-2097
▁6.83	-2098
:1.58;	-2099
0.98;	-2100
:3.32	-2101
▁6.99	-2102
▁7.04	-2103
:2.76	-2104
14;17	-2105
:3.38	-2106
:44;3	-2107
:3.35	-2108
:3.36	-2109
▁7.06	-2110
▁5.64	-2111
8;42	-2112
:34;2	-2113
▁4.22	-2114
:12;12;12;12	-2115
▁5.96	-2116
▁9.55	-2117
:3.12	-2118
▁4.19	-2119
▁9.25	-2120
:3.15	-2121
▁8.47	-2122
:3.27	-2123
:16;18;	-2124
:4.32	-2125
:3.24	-2126
▁5.66	-2127
▁154.2	-2128
▁158.2	-2129
2.10;2.0	-2130
2.18	-2131
▁8.46	-2132
▁9.46	-2133
▁9.50	-2134
:1.48;	-2135
0;50	-2136
▁5.59	-2137
▁5.94	-2138
▁103.0	-2139
:3.14	-2140
:21;	-2141
:4.28	-2142
:3.33	-2143
2;36;3	-2144
4;44;44	-2145
▁9.57	-2146
▁9.41	-2147
▁8.81	-2148
:2.86;2.8	-2149
5;+3	-2150
▁147.	-2151
▁60.4	-2152
▁9.42	-2153
:3.25	-2154
▁4.00	-2155
▁9.26	-2156
▁9.44	-2157
:1.00;	-2158
2.39;2.4	-2159
:3.34	-2160
:3.11	-2161
:4.27	-2162
▁4.20	-2163
2.92;2.9	-2164
3.49;	-2165
▁4.01	-2166
▁5.65	-2167
▁150.	-2168
▁6.78	-2169
:2.84;2.8	-2170
:34;34;3	-2171
▁3.99	-2172
▁8.80	-2173
:4.29	-2174
▁5.57	-2175
▁9.36	-2176
▁9.49	-2177
▁7.01	-2178
▁8.78	-2179
6;56;56;56;5	-2180
:3.10	-2181
:4.31	-2182
▁9.30	-2183
▁8.48	-2184
▁9.40	-2185
▁4.18	-2186
2.91;2.9	-2187
:2.77	-2188
▁5.56	-2189
▁7.07	-2190
▁9.31	-2191
▁9.39	-2192
15;16;	-2193
2;6	-2194
0;3.5	-2195
▁9.56	-2196
▁6.82	-2197
▁162	-2198
▁8.44	-2199
▁3.93	-2200
:48	-2201
5;+5	-2202
1.39;	-2203
▁5.51	-2204
▁6.76	-2205
▁8.50	-2206
▁8.54	-2207
26;26;2	-2208
▁5.97	-2209
:-2;-	-2210
▁5.62	-2211
▁5.99	-2212
▁8.53	-2213
▁8.72	-2214
▁9.37	-2215
:20	-2216
▁5.58	-2217
2.70;2.6	-2218
1.96	-2219
▁Fd	-2220
▁5.75	-2221
▁5.67	-2222
▁8.56	-2223
▁6.80	-2224
▁8.73	-2225
13;14	-2226
:3.23	-2227
▁5.79	-2228
▁137.	-2229
:18;16;	-2230
:4.30	-2231
▁15.5	-2232
▁6.81	-2233
9;39;3	-2234
:1.47;	-2235
2.44;2.4	-2236
▁33	-2237
1;+1	-2238
:2.80	-2239
0;36;3	-2240
▁5.84	-2241
▁9.32	-2242
:2.87;2.8	-2243
0;26	-2244
3.41;	-2245
▁9.47	-2246
:4.40	-2247
▁9.35	-2248
:2.83;2.8	-2249
▁8.55	-2250
▁9.51	-2251
▁9.43	-2252
2;28;3	-2253
8;58;5	-2254
:2.85;2.8	-2255
:2.75	-2256
:0.7	-2257
▁5.42	-2258
3;+2;+2;+	-2259
▁5.55	-2260
:1.37;	-2261
3.52;	-2262
:4.42	-2263
▁5.69	-2264
▁6.72	-2265
▁8.76	-2266
:3.19	-2267
▁9.52	-2268
▁9.61	-2269
▁90.6	-2270
▁15.6	-2271
▁4.24	-2272
▁5.54	-2273
1;+4	-2274
17;17	-2275
▁5.71	-2276
▁5.86	-2277
2.43;2.4	-2278
▁9.59	-2279
:+3;-2;-2;+	-2280
:32	-2281
3.47;	-2282
▁6.01	-2283
-42	-2284
▁140	-2285
▁5.95	-2286
:+5;+2;+	-2287
:3.08	-2288
:2.78	-2289
:3.16	-2290
:3.17	-2291
▁6.63	-2292
:20;20;20;20	-2293
1;21	-2294
▁4.25	-2295
▁5.73	-2296
▁5.93	-2297
▁35	-2298
8;1.9	-2299
:3.09	-2300
:4.43	-2301
3.06;	-2302
▁3.92	-2303
▁5.70	-2304
▁119.8	-2305
▁15.8	-2306
▁8.61	-2307
2;29;	-2308
▁6.65	-2309
:28	-2310
▁8.74	-2311
▁5.68	-2312
▁6.75	-2313
▁8.57	-2314
3;34;3	-2315
▁4.23	-2316
▁5.85	-2317
:2.89;2.8	-2318
:4.33	-2319
▁5.76	-2320
▁6.66	-2321
▁8.52	-2322
_12_12	-2323
▁6.77	-2324
3;43;4	-2325
3.53;	-2326
▁5.39	-2327
▁5.92	-2328
:2.73	-2329
▁4.28	-2330
▁5.53	-2331
▁8.63	-2332
1.95;1.9	-2333
:4.53	-2334
3.54;	-2335
▁5.72	-2336
▁5.80	-2337
2.13	-2338
▁6.00	-2339
▁6.70	-2340
2.41;	-2341
9;1.6	-2342
▁8.65	-2343
7;36;3	-2344
2.90;2.9	-2345
:4.52	-2346
▁5.82	-2347
▁8.70	-2348
▁5.81	-2349
:2.85	-2350
▁6.74	-2351
▁5.40	-2352
▁5.47	-2353
▁5.49	-2354
▁5.88	-2355
▁8.64	-2356
:4.45	-2357
▁8.77	-2358
5;34;3	-2359
▁221	-2360
:2.72	-2361
:4.41	-2362
▁9.63	-2363
▁143.2	-2364
:2.82;2.8	-2365
17;2	-2366
▁5.37	-2367
▁59.3	-2368
▁9.53	-2369
:20;23;2	-2370
:2.79	-2371
▁3.90	-2372
▁5.83	-2373
4;42;4	-2374
8;28;3	-2375
:2.70	-2376
:2.89	-2377
:4.47	-2378
3.46;	-2379
:4.49	-2380
2;30;3	-2381
:2.84	-2382
:2.96	-2383
▁5.38	-2384
:2.74	-2385
:4.37	-2386
▁4.29	-2387
▁8.75	-2388
▁9.65	-2389
▁5.48	-2390
▁6.71	-2391
1;-1;-1;+1;+	-2392
3.51;	-2393
:4.36	-2394
2.42;2.4	-2395
▁6.67	-2396
3;-3;-3;+3	-2397
2.15	-2398
3.30	-2399
4;1.9	-2400
:27;2	-2401
:2.88;2.8	-2402
▁5.78	-2403
:2.81;2.8	-2404
:2.88	-2405
▁5.43	-2406
▁5.52	-2407
▁89.5	-2408
2.17	-2409
:2.82	-2410
▁9.62	-2411
2.42;	-2412
:2.71	-2413
▁4.27	-2414
2.93;2.9	-2415
:50;50;5	-2416
:2.92	-2417
1.98;2.0	-2418
▁6.62	-2419
3;+1;+1;+	-2420
:2.81	-2421
:3.20	-2422
▁5.77	-2423
▁6.02	-2424
▁8.59	-2425
:2.87	-2426
:4.38	-2427
▁4.26	-2428
▁9.73	-2429
1.03;	-2430
3.07	-2431
1.00;	-2432
▁6.03	-2433
:4.39	-2434
▁3.91	-2435
▁5.91	-2436
2.94;2.9	-2437
4;6	-2438
▁8.71	-2439
5;+4	-2440
:2.69	-2441
:3.21	-2442
▁60.5	-2443
:1.03;	-2444
:4.35	-2445
▁5.90	-2446
5;36;3	-2447
:+3;+4;+	-2448
▁5.35	-2449
:4.34	-2450
:4.46	-2451
▁8.68	-2452
2.45;2.4	-2453
26;22	-2454
:4.55	-2455
:3.18	-2456
▁9.33	-2457
1;1.5	-2458
2.69;	-2459
▁5.50	-2460
▁5.87	-2461
▁131.7	-2462
:+2;+2;-2;+	-2463
3.55;	-2464
:2.86	-2465
▁5.74	-2466
:12;12;	-2467
▁155.	-2468
:23;23;2	-2469
3.40;	-2470
:2.99	-2471
▁5.89	-2472
2_12_12	-2473
2.76;2.8	-2474
▁6.73	-2475
:2.93	-2476
▁4.32	-2477
▁6.69	-2478
:4.44	-2479
▁8.58	-2480
▁16.9	-2481
:+2;-2;-2;+	-2482
:2.97	-2483
▁72.4	-2484
▁8.69	-2485
▁6.64	-2486
:2.91	-2487
▁6.61	-2488
:31;2	-2489
▁8.67	-2490
▁9.77	-2491
18;20;	-2492
6;2	-2493
:4.54	-2494
▁8.66	-2495
2;33;3	-2496
▁5.41	-2497
▁5.45	-2498
▁229	-2499
3.59;	-2500
:3.06	-2501
:3.07	-2502
▁6.59	-2503
▁6.60	-2504
▁3.82	-2505
▁6.55	-2506
▁9.76	-2507
▁9.85	-2508
:-2;-2;+	-2509
2.14	-2510
▁9.74	-2511
2.78;2.78;	-2512
:2.83	-2513
:4.48	-2514
2;22;	-2515
:4.56	-2516
▁5.36	-2517
▁8.60	-2518
2.77;2.77;	-2519
:4.50	-2520
▁5.20	-2521
▁5.44	-2522
▁5.46	-2523
15;14;	-2524
▁147	-2525
:3.22	-2526
18;18;18	-2527
3.43;	-2528
2.46;2.4	-2529
3;-3;-3;+3;+3	-2530
:14	-2531
3.05;	-2532
3.56;	-2533
:2.98	-2534
:3.00	-2535
▁9.66	-2536
2.95;2.9	-2537
▁14.4	-2538
▁15.9	-2539
2.41;2.4	-2540
.00;	-2541
2.75;2.8	-2542
14;14;14;14	-2543
3.45;	-2544
:2.68	-2545
2.79;2.79;	-2546
▁2.9	-2547
▁8.62	-2548
:5.00;	-2549
2.16	-2550
▁4.31	-2551
▁6.58	-2552
▁9.34	-2553
▁30.	-2554
2;42;3	-2555
:1.56;	-2556
2.40;2.4	-2557
3.42;	-2558
:3.04	-2559
▁5.32	-2560
▁77.2	-2561
▁58	-2562
:4.51	-2563
▁4.33	-2564
2.64;2.6	-2565
▁90.7	-2566
2.65;2.6	-2567
▁9.82	-2568
▁9.75	-2569
▁6.04	-2570
▁80.3	-2571
18;20	-2572
:2.90	-2573
3;23	-2574
3.44;	-2575
:36;4	-2576
▁9.60	-2577
:2.80;2.8	-2578
▁9.67	-2579
38	-2580
▁6.06	-2581
▁Cmce	-2582
▁45.	-2583
4;36;3	-2584
12;12;12	-2585
2;1.5	-2586
▁9.95	-2587
▁9.98	-2588
3.61;	-2589
▁4.30	-2590
▁6.05	-2591
1.99;1.9	-2592
2.47;2.4	-2593
▁3.83	-2594
▁9.84	-2595
2;30	-2596
▁6.46	-2597
:37;4	-2598
▁9.69	-2599
▁9.71	-2600
▁10.07	-2601
2;-2;+2	-2602
:14;12;	-2603
3.58;	-2604
▁89.4	-2605
▁9.72	-2606
:+1;+3;+	-2607
▁156.	-2608
3.04;	-2609
:4.57	-2610
▁5.19	-2611
4;-2;+	-2612
9;39;4	-2613
▁72.5	-2614
8;6	-2615
:3.03	-2616
:1.57;	-2617
▁6.42	-2618
0;40;3	-2619
8;44	-2620
7;1.9	-2621
:3.01	-2622
▁9.70	-2623
▁9.81	-2624
▁9.83	-2625
3;1.5	-2626
▁9.80	-2627
▁3.88	-2628
▁9.96	-2629
2_12_12_1	-2630
:23;20;20;2	-2631
17;18	-2632
:2.95	-2633
4_	-2634
6;1.9	-2635
3.31	-2636
:4.58	-2637
▁16.7	-2638
▁9.64	-2639
2;44;4	-2640
16;18	-2641
3.57;	-2642
26;20	-2643
▁99.7	-2644
:+4;+1;+	-2645
15;14	-2646
▁3.89	-2647
:2.94	-2648
▁10.04	-2649
:+5;+5;+	-2650
37	-2651
▁9.97	-2652
8;37;3	-2653
9;29;3	-2654
▁10.13	-2655
0;6	-2656
▁9.86	-2657
2;-2;+3	-2658
2.96;2.9	-2659
▁9.78	-2660
2.43;	-2661
▁4.36	-2662
▁6.35	-2663
:14;16;	-2664
▁5.22	-2665
▁5.33	-2666
▁120.2	-2667
▁4.34	-2668
▁6.68	-2669
1.93;1.9	-2670
▁16.5	-2671
▁6.34	-2672
▁10.08	-2673
3.62;	-2674
▁168.	-2675
0;44	-2676
19;20	-2677
4;54;5	-2678
▁10.03	-2679
3;+1;-2	-2680
2.68;2.6	-2681
▁33.9	-2682
▁9.93	-2683
▁119.7	-2684
▁6.08	-2685
▁10.02	-2686
:+1;-2;-2;+	-2687
▁161	-2688
:3.02	-2689
▁4.42	-2690
:18;18;2	-2691
2;44	-2692
▁106.8	-2693
▁6.43	-2694
▁6.44	-2695
▁6.48	-2696
▁64.8	-2697
▁10.05	-2698
0;40	-2699
:2.65	-2700
▁3.87	-2701
▁9.79	-2702
1.97;1.9	-2703
▁82	-2704
0;42	-2705
▁6.57	-2706
EFG	-2707
2;35;3	-2708
4;-2	-2709
▁4.35	-2710
▁10.06	-2711
1;+2	-2712
13;13	-2713
:3.05	-2714
▁9.68	-2715
2.67;2.6	-2716
:+3;+3;-2;-2;+	-2717
1;+3	-2718
▁6.17	-2719
3.32	-2720
2.44;	-2721
2.68;	-2722
▁4.38	-2723
▁70.5	-2724
▁9.94	-2725
1.94;1.9	-2726
1.74;	-2727
▁100	-2728
▁145.	-2729
▁9.90	-2730
:+1;-2;+	-2731
▁5.34	-2732
▁6.15	-2733
:-3;+3;+	-2734
:2.67	-2735
▁139.	-2736
▁106.9	-2737
▁6.41	-2738
0;23	-2739
▁59.1	-2740
▁9.89	-2741
2.97;2.9	-2742
▁4.64	-2743
:2.63	-2744
:4.60	-2745
▁5.27	-2746
▁6.26	-2747
▁89.3	-2748
▁59.2	-2749
mn	-2750
▁9.99	-2751
2.62;2.6	-2752
:17;17;	-2753
3;26	-2754
8;26	-2755
1.73;	-2756
1.77;	-2757
▁17.0	-2758
4;46;4	-2759
▁6.11	-2760
▁6.36	-2761
▁10.20	-2762
▁109.3	-2763
:+1;-1;+	-2764
▁3.84	-2765
2.11;2.0	-2766
0;35;3	-2767
4;22;22	-2768
1;-2;-2;+4	-2769
3.00;	-2770
14;16	-2771
3.01;	-2772
9;1.9	-2773
▁5.31	-2774
▁6.39	-2775
▁10.21	-2776
2.36;2.36;	-2777
:4.59	-2778
▁4.37	-2779
▁4.47	-2780
21;	-2781
▁10.00	-2782
▁10.12	-2783
▁10.14	-2784
0;30	-2785
▁Pbc	-2786
▁5.24	-2787
▁6.47	-2788
▁6.56	-2789
2;-2;+5	-2790
2.71;2.6	-2791
▁9.92	-2792
▁10.23	-2793
18;22	-2794
▁5.30	-2795
▁6.29	-2796
▁82.6	-2797
:36;36;3	-2798
▁10.17	-2799
▁10.22	-2800
1.96;1.9	-2801
:4.64	-2802
▁3.81	-2803
▁80.6	-2804
▁9.91	-2805
26;26;26;26	-2806
:2.64	-2807
:2.66	-2808
3;-2;-2;-2;+	-2809
TmY	-2810
:4.62	-2811
▁4.40	-2812
▁9.88	-2813
8;35;3	-2814
1;+1;+1	-2815
5;1.9	-2816
▁6.45	-2817
▁9.87	-2818
▁10.19	-2819
2.66;2.6	-2820
3.03;	-2821
▁16.8	-2822
▁33.2	-2823
▁6.27	-2824
▁10.10	-2825
▁5.17	-2826
▁6.32	-2827
▁10.15	-2828
▁10.18	-2829
▁6.53	-2830
▁4.41	-2831
:1.39;	-2832
▁16.0	-2833
▁6.12	-2834
▁6.25	-2835
▁6.38	-2836
:-1;+2;+	-2837
5;26	-2838
:4.61	-2839
3.02;	-2840
▁4.49	-2841
▁5.10	-2842
▁6.23	-2843
▁4.39	-2844
▁6.50	-2845
1.56;1.5	-2846
2.38;2.38;	-2847
3.33	-2848
15;16	-2849
▁6.09	-2850
19;18	-2851
▁5.15	-2852
2.74;2.8	-2853
:2.61	-2854
▁90.8	-2855
3.09;3.09;	-2856
▁6.31	-2857
▁6.40	-2858
▁60.6	-2859
3;33;3	-2860
▁16.6	-2861
▁6.22	-2862
5;26;2	-2863
▁10.36	-2864
▁6.07	-2865
▁10.11	-2866
▁59.0	-2867
▁6.37	-2868
2.69;2.6	-2869
▁4.92	-2870
3.06;3.0	-2871
4_2/	-2872
▁17.4	-2873
▁5.28	-2874
:1.36;	-2875
2;+2;+2;+	-2876
▁4.65	-2877
▁10.26	-2878
▁119.6	-2879
5;+2	-2880
▁24.	-2881
▁107.0	-2882
2.63;2.6	-2883
▁76.9	-2884
8;40;3	-2885
1;-2;-2;-2;+	-2886
▁6.54	-2887
19;20;	-2888
2.61;2.6	-2889
:+1;+2;+	-2890
4;7	-2891
2.45;	-2892
2.67;	-2893
▁105.5	-2894
▁70	-2895
▁4.45	-2896
▁4.67	-2897
▁5.09	-2898
▁5.18	-2899
1;-2;+6	-2900
▁59	-2901
▁4.79	-2902
▁4.99	-2903
▁58.8	-2904
▁6.13	-2905
▁6.20	-2906
▁6.28	-2907
▁72.3	-2908
18;16;	-2909
4;22;2	-2910
:1.02;	-2911
1.38;	-2912
▁82.7	-2913
▁10.09	-2914
▁10.33	-2915
▁3.86	-2916
▁6.51	-2917
4;28;2	-2918
4;34	-2919
:34;	-2920
5;-2	-2921
▁5.25	-2922
▁6.16	-2923
5;45;4	-2924
3.12;3.12;	-2925
1.96;2.0	-2926
2.72;2.6	-2927
1;-1;-1;+	-2928
:2.60	-2929
▁102.8	-2930
▁216	-2931
:2.57	-2932
▁4.62	-2933
▁4.56	-2934
▁10.37	-2935
▁10.45	-2936
14;14;14	-2937
▁17.9	-2938
▁4.46	-2939
▁10.24	-2940
:2.59	-2941
2;31;3	-2942
▁115.2	-2943
▁5.21	-2944
7;47;4	-2945
▁5.00	-2946
▁6.30	-2947
▁10.41	-2948
▁4.63	-2949
▁10.40	-2950
3;-2;+2	-2951
▁4.81	-2952
▁5.05	-2953
▁5.16	-2954
▁6.33	-2955
:+3;+3;+3;+3;+	-2956
3.06	-2957
▁155	-2958
▁82.8	-2959
2.34;2.34;	-2960
0;42;4	-2961
2.37;2.37;	-2962
3.10;3.10;	-2963
▁4.57	-2964
▁10.42	-2965
1;-2;-2;+3	-2966
1;2.81;2.8	-2967
▁10.29	-2968
▁120.3	-2969
3.05;3.0	-2970
6;56	-2971
▁4.52	-2972
:34;4	-2973
▁5.23	-2974
▁5.26	-2975
▁105.0	-2976
0;2.80;2.8	-2977
▁47.	-2978
▁4.96	-2979
▁6.10	-2980
7;38	-2981
3.63;	-2982
▁4.55	-2983
▁6.52	-2984
▁10.16	-2985
18;17	-2986
8;48;4	-2987
:2.58	-2988
:4.63	-2989
▁89.2	-2990
▁10.01	-2991
▁4.44	-2992
▁6.21	-2993
0;22;2	-2994
2;52;5	-2995
2.76;2.76;	-2996
▁17.5	-2997
▁6.24	-2998
▁Pmmn	-2999
▁84	-3000
2.92;	-3001
▁5.29	-3002
▁73.2	-3003
▁99.4	-3004
2;32;2	-3005
:-1;-1;+1;+	-3006
▁166.	-3007
▁6.49	-3008
1.98;1.9	-3009
3;-2;-2;+3	-3010
▁5.13	-3011
▁10.35	-3012
2.90;	-3013
▁4.78	-3014
▁6.14	-3015
▁10.48	-3016
:9	-3017
▁3.85	-3018
▁4.95	-3019
▁10.25	-3020
33	-3021
▁15.4	-3022
3.04;3.0	-3023
▁5.01	-3024
▁105.1	-3025
▁146.4	-3026
3.35	-3027
▁4.86	-3028
3;+3;-2	-3029
3.34	-3030
▁10.39	-3031
:2.62	-3032
▁105.6	-3033
▁126.	-3034
▁6.18	-3035
2;24	-3036
▁129.	-3037
▁75.0	-3038
3.03;3.0	-3039
:2.55;2.5	-3040
▁4.66	-3041
▁10.30	-3042
:2.90;2.8	-3043
▁10.46	-3044
:+2;+2;+4;+	-3045
8;32	-3046
:35;4	-3047
▁17.8	-3048
▁4.80	-3049
▁58.9	-3050
3.17;3.17;	-3051
:+3;+1;+1;+	-3052
▁4.51	-3053
▁106.7	-3054
2.48;2.4	-3055
:2.54	-3056
▁18.5	-3057
▁10.28	-3058
4;20	-3059
:2.55	-3060
▁138.	-3061
▁4.89	-3062
:2.53	-3063
▁10.31	-3064
2.98;2.9	-3065
▁4.50	-3066
▁4.94	-3067
▁10.47	-3068
0;29;	-3069
9;36;3	-3070
▁4.77	-3071
▁10.32	-3072
▁10.43	-3073
▁4.82	-3074
▁4.83	-3075
▁5.07	-3076
3;+2;+2	-3077
▁157.	-3078
▁4.76	-3079
:2.52	-3080
▁4.68	-3081
▁64.7	-3082
14;2	-3083
17;16	-3084
18;19	-3085
3.60;	-3086
▁109.6	-3087
:4.65	-3088
:44;5	-3089
2;+2;+3	-3090
:+2;+3;-	-3091
2.48;	-3092
▁4.69	-3093
▁4.75	-3094
:18;20;	-3095
:2.56;2.5	-3096
SrO	-3097
▁Pna	-3098
18;16	-3099
2.46;	-3100
▁17.7	-3101
▁4.93	-3102
26;29;	-3103
3;22	-3104
▁4.54	-3105
▁4.60	-3106
▁5.14	-3107
14;16;	-3108
3;-2;+5	-3109
▁107	-3110
▁4.58	-3111
▁89.0	-3112
0;22;22	-3113
:2.56	-3114
▁90.9	-3115
:-4;+	-3116
▁4.48	-3117
▁91.0	-3118
:+5;+3;+	-3119
0;34	-3120
8;34	-3121
:+1;-2;+5;+	-3122
2.47;	-3123
▁5.08	-3124
2.39;2.39;	-3125
2.91;	-3126
3.69;	-3127
▁4.87	-3128
▁75.1	-3129
3.11;3.11;	-3130
3.05	-3131
0;41;4	-3132
TbY	-3133
0;44;4	-3134
▁120.4	-3135
3.70;	-3136
▁54.8	-3137
2.59;2.5	-3138
:+3;+2;-	-3139
3.18;3.18;	-3140
9;30	-3141
:43;5	-3142
▁80.7	-3143
▁10.34	-3144
▁106.3	-3145
▁143.0	-3146
6;6;	-3147
▁158.	-3148
▁105.2	-3149
3.64;	-3150
▁18.7	-3151
▁25.9	-3152
8;38;38	-3153
▁66	-3154
:29;	-3155
2;26;	-3156
▁4.97	-3157
▁70.6	-3158
▁10.62	-3159
2.60;2.6	-3160
3.16;3.16;	-3161
312	-3162
0;38	-3163
▁149	-3164
3.67;	-3165
▁4.53	-3166
9;34;3	-3167
1.74;1.7	-3168
3;2.83;2.8	-3169
▁41	-3170
7;37	-3171
8;40	-3172
3.37	-3173
▁4.85	-3174
▁136.	-3175
▁5.03	-3176
▁10.27	-3177
:13;13;	-3178
:18;17;	-3179
:-3;-3;+2;+	-3180
▁2.8	-3181
2.80;	-3182
4;26;	-3183
2;42;42	-3184
2.93;	-3185
35	-3186
12;14	-3187
▁88	-3188
▁130.	-3189
▁58.3	-3190
▁60.7	-3191
:12;14;	-3192
▁121	-3193
▁17.6	-3194
▁5.04	-3195
8;36	-3196
1;-2;+1	-3197
2.74;2.74;	-3198
▁18.8	-3199
▁4.43	-3200
▁4.91	-3201
▁86.6	-3202
2.12;2.0	-3203
2.65;	-3204
▁5.12	-3205
▁83.2	-3206
▁10.44	-3207
:34;36;3	-3208
2.66;	-3209
▁4.73	-3210
7;1.5	-3211
▁4.71	-3212
:1.72;1.7	-3213
3.71;	-3214
:24;24;2	-3215
2.27;2.27;	-3216
▁38.	-3217
▁10.38	-3218
▁107.1	-3219
▁131.9	-3220
:2.52;2.5	-3221
▁159.	-3222
▁119.5	-3223
5;32	-3224
▁88.9	-3225
▁4.98	-3226
1;41;3	-3227
:12;12;12;12;12	-3228
1.72	-3229
1;-3	-3230
▁18.0	-3231
▁5.11	-3232
3.01;3.0	-3233
:2.54;2.5	-3234
3.66;	-3235
:2.39	-3236
▁4.90	-3237
2;18;2	-3238
3.04	-3239
2.60;	-3240
▁10.51	-3241
9;38	-3242
▁4.84	-3243
▁5.02	-3244
▁72.2	-3245
2;26;2	-3246
▁103.1	-3247
17;14	-3248
▁127.	-3249
▁4.74	-3250
:15;16;	-3251
3.36	-3252
▁46.	-3253
▁4.72	-3254
0;31;3	-3255
3.38	-3256
7;36	-3257
2.98;	-3258
:27;3	-3259
▁82.5	-3260
13;12	-3261
▁4.70	-3262
▁115.3	-3263
:12;12;12	-3264
4_1	-3265
▁89.1	-3266
▁93.4	-3267
▁10.69	-3268
▁106.4	-3269
:23;20;2	-3270
▁Pmn	-3271
2.95;	-3272
3.68;	-3273
3.65;	-3274
▁4.61	-3275
▁120.5	-3276
▁92	-3277
0;29	-3278
6;46	-3279
:60;	-3280
4;+2;+2	-3281
1.49;1.4	-3282
:+3;+3;+3;+	-3283
▁5.06	-3284
4;43;4	-3285
▁105.4	-3286
:-1;-1;+3;+3	-3287
▁6.19	-3288
0;2.90	-3289
2;2.82;2.8	-3290
1;32	-3291
2;18	-3292
2.73;2.8	-3293
1.99;1.99;	-3294
2.35;2.35;	-3295
▁60.9	-3296
2.99;2.9	-3297
3.02;3.0	-3298
▁39.	-3299
2;29;2	-3300
▁109.2	-3301
2;32;32	-3302
:-1;+1;+1;+	-3303
4;26;2	-3304
:1.46;	-3305
:36	-3306
▁140.	-3307
▁91.2	-3308
▁97.4	-3309
▁10.53	-3310
▁106.1	-3311
▁3.80	-3312
▁105.3	-3313
14;13	-3314
4;1.4	-3315
39	-3316
2;20;	-3317
:2.53;2.5	-3318
3.08;3.08;	-3319
3.02	-3320
3;+5	-3321
4;28	-3322
:2.40	-3323
▁58.7	-3324
2;2.92	-3325
▁10.70	-3326
:26;26;3	-3327
2.33;2.33;	-3328
1;21;2	-3329
3.15;3.15;	-3330
6;2.86;2.8	-3331
0;21	-3332
2.96;	-3333
:2.51	-3334
▁10.87	-3335
0;35	-3336
▁72.6	-3337
▁10.55	-3338
3;+3;+4	-3339
:+4;+4;+	-3340
:+3;+3;+1;+	-3341
▁73.6	-3342
:1.28;	-3343
4;2.84;2.8	-3344
▁57	-3345
▁77.3	-3346
▁10.71	-3347
YO	-3348
▁4.88	-3349
7;35;3	-3350
TbTm	-3351
2.61;	-3352
:24;3	-3353
▁60.8	-3354
▁77.4	-3355
:+3;+3;+3;-	-3356
▁72.7	-3357
▁91.1	-3358
8;42;4	-3359
:1.01;	-3360
▁4.59	-3361
1;31;3	-3362
▁119.3	-3363
1;+1;+3	-3364
4;38	-3365
:-3;+2;+	-3366
52	-3367
2.49;	-3368
3;36;3	-3369
▁10.72	-3370
:27;	-3371
▁61.0	-3372
2.26;2.26;	-3373
8;41	-3374
:4.66	-3375
▁10.65	-3376
▁119.4	-3377
:+5;+4;+	-3378
:-1;+2;+1;+	-3379
:+2;+2;+2;+2;+	-3380
2.64;	-3381
:4.67	-3382
▁106.6	-3383
:2.57;2.5	-3384
3.13;3.13;	-3385
50	-3386
▁39	-3387
4;42	-3388
▁54.7	-3389
▁73.3	-3390
▁76.8	-3391
▁83.0	-3392
4;45;4	-3393
▁10.75	-3394
1.65;1.6	-3395
3.00;3.0	-3396
▁43	-3397
2;29	-3398
▁227	-3399
9;2.89	-3400
2.33;2.4	-3401
▁48.	-3402
:33;2	-3403
:4.99	-3404
▁83	-3405
2;35	-3406
▁10.50	-3407
2;-2;+1	-3408
:2.59;2.5	-3409
0;28	-3410
3.03	-3411
▁99.3	-3412
1;2.91	-3413
2;2.02;2.0	-3414
:26;26;26;2	-3415
6;40	-3416
6;44	-3417
▁176	-3418
2.81;	-3419
▁75.2	-3420
5;2.85	-3421
▁10.73	-3422
3;32	-3423
▁16.4	-3424
5;-2;+	-3425
SmY	-3426
▁Fdd	-3427
:16;2	-3428
:2.38	-3429
:38;2	-3430
▁82.9	-3431
▁10.60	-3432
▁81.4	-3433
▁10.59	-3434
2;-2;-2;-2	-3435
3.49	-3436
9;41;4	-3437
:1.29;	-3438
9;6	-3439
:2.36	-3440
▁106.2	-3441
:15;14;	-3442
:20;22;2	-3443
:+2;+3;-2;+	-3444
2;36	-3445
:4.72	-3446
▁81.8	-3447
▁10.79	-3448
▁10.81	-3449
▁10.94	-3450
:12;13;	-3451
2.49;2.4	-3452
:2.58;2.5	-3453
3.28;3.28;	-3454
ThY	-3455
5;+1	-3456
▁83.1	-3457
1.50;1.5	-3458
26;4	-3459
▁84.6	-3460
2;-2;-2;+4	-3461
:26;4	-3462
:4.97	-3463
3.26;3.26;	-3464
▁128.	-3465
1.73;1.7	-3466
:18;18;18;18;	-3467
:56;56;56;56;5	-3468
:2.37	-3469
▁18.9	-3470
▁105.8	-3471
:15;12;	-3472
2.84;	-3473
:4.70	-3474
:50;5	-3475
2.62;	-3476
▁58.6	-3477
0;2.80	-3478
▁107.2	-3479
2.75;2.75;	-3480
▁73.7	-3481
▁104.9	-3482
3.14;3.14;	-3483
:+3;+3;-2;+	-3484
5;24	-3485
▁10.54	-3486
▁10.74	-3487
▁106.0	-3488
2;34;34;3	-3489
3.19;3.19;	-3490
▁10.52	-3491
2.99;	-3492
:4.69	-3493
▁33.1	-3494
▁81.3	-3495
1;-3;-	-3496
▁105.9	-3497
:2.51;2.5	-3498
2.94;	-3499
:2.49	-3500
:4.71	-3501
▁76.7	-3502
:38;36;3	-3503
3.27;3.27;	-3504
SrGe	-3505
:23;20;20;23	-3506
16;14	-3507
2.82;	-3508
▁73.4	-3509
1;2.81	-3510
▁154.3	-3511
3.00;2.9	-3512
3.24;3.24;	-3513
3.25;3.25;	-3514
1.48	-3515
1;21;	-3516
2.85;	-3517
▁73.5	-3518
▁74.8	-3519
▁106.5	-3520
2.83;	-3521
:2.50	-3522
▁91.3	-3523
▁10.61	-3524
:4.68	-3525
▁76.6	-3526
8;2.88	-3527
▁107.4	-3528
2.73;2.73;	-3529
0;36	-3530
▁54.9	-3531
▁57.9	-3532
▁88.8	-3533
▁10.63	-3534
▁88.7	-3535
▁99.8	-3536
▁10.77	-3537
▁10.82	-3538
1;+1;+2	-3539
7;1.4	-3540
▁56.5	-3541
▁61.9	-3542
▁Ia	-3543
2;33	-3544
3.53	-3545
2.63;	-3546
▁18.6	-3547
▁33.0	-3548
6;43;4	-3549
▁10.76	-3550
▁104.8	-3551
3.00	-3552
2.97;	-3553
:4.73	-3554
▁83.7	-3555
5;25;2	-3556
:1.35;	-3557
:16;17;	-3558
:1.71;1.7	-3559
2;-2;-2;+2	-3560
:-1;-1;-1;+	-3561
ZnO	-3562
12;13	-3563
:4.87	-3564
▁10.67	-3565
▁10.80	-3566
▁105.7	-3567
4;44;44;44	-3568
:16;16;16;	-3569
:42;	-3570
2.28;2.28;	-3571
18;18;18;18	-3572
▁143	-3573
▁85.2	-3574
7;34;3	-3575
▁10.68	-3576
▁104.7	-3577
2.90;2.8	-3578
▁92.6	-3579
7;38;3	-3580
▁10.78	-3581
3.20;3.20;	-3582
:22;30;30;3	-3583
3;26;	-3584
▁55.9	-3585
▁DyEr	-3586
▁10.57	-3587
▁10.58	-3588
:44;42;4	-3589
3.01	-3590
:20;3	-3591
▁61.7	-3592
▁84.4	-3593
:13;14;	-3594
:42;42;42;42	-3595
3.39	-3596
8;30	-3597
▁79.1	-3598
▁79.3	-3599
▁10.49	-3600
▁10.84	-3601
2;23;2	-3602
5;26;3	-3603
:-1;+3;+	-3604
4_1/	-3605
:4.74	-3606
▁55.2	-3607
▁79.2	-3608
0;29;3	-3609
▁10.90	-3610
:4.79	-3611
:4.95	-3612
▁83.4	-3613
▁10.86	-3614
:+2;+3;+3;+	-3615
8;7	-3616
3.45	-3617
9;32	-3618
PrSm	-3619
3.50;	-3620
▁56.1	-3621
▁58.4	-3622
▁73.0	-3623
▁109.1	-3624
0;2.00;	-3625
2.72;2.8	-3626
:44;42;42;4	-3627
SmTb	-3628
:48;5	-3629
▁10.89	-3630
4;-2;-2	-3631
2.13;2.0	-3632
:4.98	-3633
▁19.0	-3634
▁74.6	-3635
4;29;3	-3636
6;-2;+	-3637
1.77	-3638
5;25	-3639
1.92;	-3640
▁80.9	-3641
:20;16;	-3642
:20;26;2	-3643
:-4;-	-3644
:4.77	-3645
▁58.1	-3646
▁73.1	-3647
▁81.7	-3648
0;28;2	-3649
▁102.7	-3650
:+2;+2;+2;-	-3651
:23;23;20;20	-3652
3.48	-3653
3.54	-3654
6;45;4	-3655
:1.30;	-3656
▁50.	-3657
▁55.3	-3658
▁83.3	-3659
8;26;3	-3660
8;41;4	-3661
:4.81	-3662
:56;5	-3663
:1.27;	-3664
▁10.85	-3665
3.47	-3666
8;1.5	-3667
▁84.7	-3668
▁10.56	-3669
:2.50;2.5	-3670
:4.76	-3671
:4.86	-3672
▁3.77	-3673
4;41;4	-3674
7;2.87	-3675
▁109.7	-3676
▁120.6	-3677
:32;4	-3678
:43;3	-3679
▁3.79	-3680
▁74.9	-3681
▁85.3	-3682
:16;14;	-3683
:52;5	-3684
▁58.5	-3685
▁81.6	-3686
▁91.5	-3687
▁10.91	-3688
▁103.2	-3689
:19;20;	-3690
1.72;1.7	-3691
3.46	-3692
6;+6	-3693
▁76.0	-3694
1;36;3	-3695
FG	-3696
1;-1	-3697
▁76.1	-3698
▁83.8	-3699
2.31;2.31;	-3700
:4.80	-3701
▁70.7	-3702
▁10.83	-3703
▁11.16	-3704
▁76.4	-3705
▁76.5	-3706
:33;34;3	-3707
:4.82	-3708
▁81.5	-3709
▁91.4	-3710
4;2.84	-3711
:2.91;2.8	-3712
:20;20;20;23	-3713
3;+6	-3714
:4.92	-3715
:54;5	-3716
2;29;3	-3717
▁10.99	-3718
▁103.6	-3719
▁104.6	-3720
▁107.3	-3721
:15;18;	-3722
:19;19;	-3723
9;40	-3724
:2.35	-3725
:4.85	-3726
▁10.93	-3727
▁104.5	-3728
▁56.2	-3729
▁78.4	-3730
▁81.1	-3731
▁98.0	-3732
▁10.64	-3733
▁230	-3734
:4.91	-3735
26;26;3	-3736
:4.78	-3737
▁32.9	-3738
▁56.7	-3739
▁77.5	-3740
:14;15;	-3741
:26;20;	-3742
:28;28;2	-3743
3.40	-3744
▁49.	-3745
▁3.78	-3746
▁79.0	-3747
▁85.0	-3748
▁135.	-3749
▁25.8	-3750
▁80.2	-3751
▁85.5	-3752
0;24;2	-3753
1.75;1.7	-3754
2.14;2.0	-3755
:58;58;5	-3756
:17;2	-3757
▁85.1	-3758
▁119.2	-3759
2.74;2.9	-3760
▁51	-3761
9;39	-3762
1.02;	-3763
:2.34	-3764
:4.89	-3765
:4.96	-3766
▁75.5	-3767
2;28	-3768
3.50	-3769
0;21;	-3770
:2.48	-3771
:4.75	-3772
▁24.9	-3773
▁55.8	-3774
▁74.5	-3775
▁80.8	-3776
▁84.9	-3777
▁86.4	-3778
▁103.5	-3779
▁11.06	-3780
1;-2;+5;+4	-3781
3.52	-3782
:2.41	-3783
▁78.3	-3784
6;+3	-3785
▁40.	-3786
:4.84	-3787
▁83.5	-3788
▁84.5	-3789
▁88.5	-3790
18;17;	-3791
▁10.66	-3792
:+2;+4;-	-3793
:+3;+2;+2;+	-3794
8;24	-3795
▁128	-3796
2.86;	-3797
:4.94	-3798
▁3.76	-3799
▁58.2	-3800
▁70.8	-3801
▁96.3	-3802
2.76;2.76	-3803
▁45	-3804
▁3.61	-3805
▁104.4	-3806
▁146.5	-3807
▁56.3	-3808
▁99.9	-3809
▁11.01	-3810
▁110.9	-3811
▁131.6	-3812
2.91;2.8	-3813
0;1.5	-3814
:4.88	-3815
▁3.66	-3816
▁70.9	-3817
▁75.3	-3818
▁75.4	-3819
3;2.83	-3820
4;26;3	-3821
:16;12;	-3822
:+1;+1;+1;+	-3823
:+2;-1;-1;+	-3824
15;2	-3825
:4.83	-3826
▁82.0	-3827
3;-2;-2;+4	-3828
:23;20;23;20	-3829
▁56.6	-3830
▁61.5	-3831
▁75.9	-3832
3;2.93	-3833
▁10.95	-3834
:4.93	-3835
▁72.8	-3836
▁98.1	-3837
4;35;3	-3838
▁10.97	-3839
:17;16;	-3840
:15;15;15;	-3841
4;50	-3842
▁76.2	-3843
▁81.2	-3844
▁81.9	-3845
▁99.2	-3846
2;-2;-2;+3	-3847
4;-4	-3848
:2.33	-3849
▁85.4	-3850
▁88.6	-3851
2;26;3	-3852
▁102.6	-3853
▁109.0	-3854
:+3;+5;+	-3855
1;-2;+4;+	-3856
1;-2;+4;+3	-3857
8;22	-3858
▁18.4	-3859
▁56.0	-3860
▁74.3	-3861
0;33;3	-3862
▁10.96	-3863
0;30;34	-3864
2;26;26	-3865
:32;32;32;32	-3866
1;+6	-3867
▁57.8	-3868
▁70.4	-3869
▁84.2	-3870
2;+2;-2	-3871
1.76;1.7	-3872
0;1.4	-3873
0;26;	-3874
▁55.5	-3875
▁61.2	-3876
▁85.6	-3877
▁86.5	-3878
2;43;4	-3879
▁103.3	-3880
▁167.5	-3881
14;15	-3882
14;18	-3883
▁3.69	-3884
▁95.1	-3885
▁10.92	-3886
5;2.85;2.8	-3887
15;18	-3888
▁19.8	-3889
▁3.74	-3890
▁77.6	-3891
:0.75;	-3892
▁10.88	-3893
▁11.02	-3894
:18;19;	-3895
:-3;-3;+2;+2;+	-3896
3.51	-3897
:4.90	-3898
▁3.65	-3899
▁56.4	-3900
▁61.6	-3901
▁11.00	-3902
2.02;2.0	-3903
0;24	-3904
▁19.7	-3905
▁20.0	-3906
▁72.9	-3907
▁76.3	-3908
▁91.8	-3909
1;39;4	-3910
▁11.03	-3911
▁11.04	-3912
▁11.19	-3913
▁3.75	-3914
▁75.8	-3915
▁82.1	-3916
:28;28;3	-3917
▁3.58	-3918
9;29;2	-3919
▁107.5	-3920
:+2;+2;+3;+	-3921
5;6	-3922
3.41	-3923
2;38;38;3	-3924
3.42	-3925
6;42	-3926
▁136	-3927
:2.42	-3928
:2.46	-3929
▁3.54	-3930
▁61.1	-3931
▁78.8	-3932
▁81.0	-3933
2.77;2.77	-3934
1.39	-3935
4;40	-3936
1.72;	-3937
▁3.64	-3938
▁3.67	-3939
▁80.1	-3940
1;38	-3941
2;31	-3942
▁3.68	-3943
▁3.71	-3944
▁34.0	-3945
4;44;3	-3946
▁104.0	-3947
15;15;18	-3948
2.88;2.8	-3949
2.79;2.79	-3950
8;39	-3951
:56;	-3952
▁88.4	-3953
▁100.0	-3954
3;+3;+2	-3955
:+3;+3;+3;+3;-	-3956
0;41	-3957
4;32	-3958
▁79.5	-3959
▁11.14	-3960
3;+1;+1	-3961
:35;36;3	-3962
3.21;3.21;	-3963
2.69	-3964
2;23	-3965
8;35	-3966
▁82.3	-3967
▁91.7	-3968
1.76;	-3969
2.87;	-3970
▁3.72	-3971
▁72.1	-3972
▁79.4	-3973
mnm	-3974
3.43	-3975
3;18	-3976
8;26;	-3977
▁3.55	-3978
▁95.2	-3979
2;24;2	-3980
▁100.2	-3981
▁103.7	-3982
▁104.3	-3983
▁11.24	-3984
:42;42;42	-3985
2;21	-3986
3.55	-3987
▁74.2	-3988
▁79.7	-3989
▁83.6	-3990
▁11.07	-3991
▁11.08	-3992
▁11.33	-3993
2.01;2.0	-3994
2.89;2.8	-3995
1;20	-3996
:58;5	-3997
▁3.59	-3998
▁3.63	-3999
▁78.2	-4000
▁98.6	-4001
2;2.82	-4002
▁11.18	-4003
3.50;3.5	-4004
2.72;2.72;	-4005
▁173	-4006
2.58;	-4007
5;26;	-4008
:2.45	-4009
▁62.0	-4010
▁71.9	-4011
▁ErHo	-4012
▁108.8	-4013
▁11.27	-4014
-42_1	-4015
▁75.6	-4016
▁103.4	-4017
▁104.1	-4018
▁108.9	-4019
:36;34;3	-4020
:-3;+	-4021
:2.01	-4022
▁57.6	-4023
▁61.4	-4024
18;19;	-4025
▁11.22	-4026
▁11.25	-4027
:+3;+4;-	-4028
:50;50;4	-4029
3.23;3.23;	-4030
:+3;+3;-3;+3;+3	-4031
16;2	-4032
5;35	-4033
▁19.9	-4034
▁82.2	-4035
▁84.0	-4036
▁88.0	-4037
▁97.5	-4038
6;2.86	-4039
:1.45;	-4040
2.32;2.32;	-4041
NdPr	-4042
:2.47	-4043
▁160.	-4044
▁24.7	-4045
▁78.5	-4046
▁78.9	-4047
▁CeDy	-4048
▁10.98	-4049
▁11.15	-4050
:16;15;	-4051
2.38;2.4	-4052
2.55;2.5	-4053
▁81	-4054
2;37	-4055
▁55.1	-4056
▁61.3	-4057
▁74.4	-4058
▁86.3	-4059
▁91.6	-4060
▁11.17	-4061
▁11.44	-4062
▁96	-4063
3.44	-4064
:49;4	-4065
▁92.5	-4066
▁95.4	-4067
0;23;2	-4068
2.15;2.0	-4069
:2.06;2.0	-4070
▁20.7	-4071
▁84.8	-4072
▁94.7	-4073
▁102.5	-4074
▁164.4	-4075
0;2.80;	-4076
:15;15;	-4077
TbO	-4078
2;40	-4079
▁19.6	-4080
▁3.57	-4081
2;44;44	-4082
1.68;1.6	-4083
YGe	-4084
▁82.4	-4085
▁92.2	-4086
▁97.1	-4087
▁108.2	-4088
▁11.46	-4089
2.87;2.8	-4090
20;14;14;	-4091
1.75;	-4092
:1.99	-4093
▁17.2	-4094
▁73.8	-4095
▁92.1	-4096
2;41;4	-4097
▁11.13	-4098
▁11.31	-4099
▁11.49	-4100
2.78;2.78	-4101
▁98.2	-4102
5;2.95	-4103
▁11.36	-4104
:12;16;	-4105
:26;24;2	-4106
2.70;2.70	-4107
:32;32;32;32;32	-4108
mnc	-4109
▁71.1	-4110
▁75.7	-4111
▁77.9	-4112
▁79.6	-4113
▁98.3	-4114
0;39;4	-4115
▁104.2	-4116
▁109.8	-4117
▁11.45	-4118
7;6	-4119
1.73	-4120
▁24.6	-4121
▁CeLa	-4122
▁11.35	-4123
:30;30;3	-4124
:46;46;4	-4125
:-2;-2;-2;+	-4126
13;2	-4127
ThSi	-4128
▁24.5	-4129
▁55.7	-4130
▁98.4	-4131
▁11.12	-4132
0;20;20;	-4133
:28;28;28;2	-4134
YSb	-4135
PdRh	-4136
1.91;	-4137
2.59;	-4138
8;1.4	-4139
:2.32	-4140
▁3.62	-4141
▁3.70	-4142
▁71.6	-4143
▁85.7	-4144
▁92.3	-4145
▁95.0	-4146
▁96.4	-4147
▁97.7	-4148
:1.43;	-4149
▁11.23	-4150
1;22	-4151
▁Pnn	-4152
2.88;	-4153
▁3.73	-4154
▁11.39	-4155
2.56;2.5	-4156
2.58;2.5	-4157
3.22;3.22;	-4158
3;2.03;2.0	-4159
1.87;	-4160
▁56.9	-4161
▁58.0	-4162
▁88.2	-4163
▁99.0	-4164
▁102.4	-4165
▁11.10	-4166
0;20;20	-4167
2;+2;+4	-4168
14;14;17	-4169
7;35	-4170
:44;	-4171
▁56.8	-4172
▁61.8	-4173
▁74.1	-4174
▁11.32	-4175
▁119.0	-4176
8;42;42	-4177
2.32;2.4	-4178
:40	-4179
:2.31	-4180
7;44;4	-4181
▁108.4	-4182
▁11.05	-4183
3;+2;+3	-4184
2.71;2.71;	-4185
18;21	-4186
2.89;	-4187
▁24.4	-4188
▁70.3	-4189
▁74.0	-4190
▁98.9	-4191
▁99.1	-4192
▁11.79	-4193
▁120.7	-4194
▁167.7	-4195
:14;16;16;	-4196
NiRh	-4197
16;17	-4198
▁24.3	-4199
▁91.9	-4200
▁95.8	-4201
▁107.6	-4202
2.92;2.8	-4203
:+1;+2;-	-4204
3.58	-4205
0.00;	-4206
2.50;	-4207
:2.02	-4208
▁3.56	-4209
▁57.7	-4210
8;33;3	-4211
▁146.6	-4212
:42;38;3	-4213
:20;20;23;20	-4214
NiO	-4215
YSi	-4216
2.68	-4217
7;34	-4218
▁21.	-4219
:62;6	-4220
▁73.9	-4221
▁94.5	-4222
▁94.9	-4223
▁11.29	-4224
2.71;2.8	-4225
2.74;2.74	-4226
2.29;2.29;	-4227
:17;17;17;	-4228
:38;38;38;38;4	-4229
ThP	-4230
:2.43	-4231
▁88.1	-4232
▁11.43	-4233
▁11.66	-4234
:+3;-1;-1;+	-4235
YP	-4236
▁69	-4237
3.57	-4238
3;24	-4239
8;37	-4240
▁74.7	-4241
▁119.1	-4242
▁132.0	-4243
2.54;2.5	-4244
:22;34;3	-4245
2;32;32;32	-4246
1;30	-4247
2.57;	-4248
▁19.5	-4249
▁103.9	-4250
▁11.69	-4251
TbGe	-4252
1.01;	-4253
▁95.3	-4254
0;41;3	-4255
2;39;4	-4256
3;41;4	-4257
4;2.94	-4258
:+1;+1;-2;-2;+	-4259
7;40	-4260
0.97;	-4261
:47;5	-4262
▁85.8	-4263
▁DyHo	-4264
1.64;1.61	-4265
2;2.92;2.9	-4266
TiO	-4267
3.56	-4268
8;29	-4269
ThSb	-4270
▁55.6	-4271
▁11.28	-4272
:14;18;	-4273
:17;14;	-4274
0.99;2.0	-4275
:+5;-1;+	-4276
▁37	-4277
9;29	-4278
▁55.4	-4279
▁71.0	-4280
▁11.30	-4281
8;44;44	-4282
:+2;+2;+1;+	-4283
:+3;+3;+3;-3;+3	-4284
1;6	-4285
▁57.4	-4286
▁11.20	-4287
▁11.61	-4288
2.73;2.73	-4289
:2.05;2.0	-4290
:50;50;50;50	-4291
0.99	-4292
1.88;	-4293
▁77.7	-4294
▁85.9	-4295
▁97.3	-4296
▁CeEr	-4297
▁11.50	-4298
2;38;38	-4299
3.01;2.9	-4300
:+1;+1;-	-4301
1.89;	-4302
▁80.0	-4303
▁87.0	-4304
5;33;3	-4305
▁107.8	-4306
▁11.09	-4307
▁11.72	-4308
14;12	-4309
2.01;	-4310
:2.00	-4311
:2.24	-4312
▁24.8	-4313
▁79.8	-4314
▁94.8	-4315
▁11.21	-4316
▁11.37	-4317
1.63;1.6	-4318
:30;34;3	-4319
1;-2;+5;+3	-4320
:+5;+5;+5;+	-4321
1;26	-4322
▁69.2	-4323
▁71.4	-4324
▁84.3	-4325
▁11.26	-4326
:32;34;3	-4327
▁95.6	-4328
7;2.97	-4329
▁100.9	-4330
▁108.1	-4331
▁108.3	-4332
▁11.60	-4333
:+2;-3;-	-4334
2.25;2.25;	-4335
:+2;+2;-2;-2;+	-4336
222	-4337
TmO	-4338
1.78;	-4339
18;14	-4340
2.53;	-4341
:2.44	-4342
▁57.2	-4343
▁87.6	-4344
2;2.52	-4345
6;2.96	-4346
▁109.9	-4347
▁11.74	-4348
▁11.88	-4349
1.77;1.7	-4350
:26;26;26	-4351
3;+1;+1;+1;+	-4352
16;15	-4353
▁3.53	-4354
▁96.5	-4355
▁107.9	-4356
▁11.11	-4357
1.96;1.96;	-4358
▁78.1	-4359
▁96.8	-4360
8;44;4	-4361
▁11.54	-4362
▁11.70	-4363
▁11.78	-4364
3;+4;+3	-4365
:14;20;	-4366
3.02;2.9	-4367
:25;	-4368
SmTm	-4369
▁71.7	-4370
▁83.9	-4371
▁96.7	-4372
:+3;+1;-	-4373
3.07;3.07;	-4374
:+3;-3;+3;+3;+3	-4375
2;19	-4376
3;43	-4377
▁24.0	-4378
▁32.7	-4379
▁68.5	-4380
▁71.3	-4381
▁78.6	-4382
▁79.9	-4383
▁95.7	-4384
▁96.2	-4385
4;23;2	-4386
▁100.8	-4387
▁108.6	-4388
▁11.48	-4389
:-1;+4;+	-4390
:24;26;2	-4391
2.75;2.75	-4392
2.30;2.30;	-4393
5;34	-4394
NdSm	-4395
:53;5	-4396
▁3.60	-4397
▁97.2	-4398
0;2.40	-4399
8;26;2	-4400
2.19;2.0	-4401
2.81;2.8	-4402
:21;21;2	-4403
3;+3;-2;-2	-4404
:43;50;50;4	-4405
9;1.5	-4406
▁93.0	-4407
▁100.1	-4408
▁11.41	-4409
2;22;22	-4410
2;34;34	-4411
:13;12;	-4412
2.17;2.0	-4413
2.60;2.5	-4414
2.75;2.9	-4415
1.97;1.97;	-4416
9;2.89;2.8	-4417
▁150	-4418
2.51;	-4419
1;34;3	-4420
▁11.55	-4421
▁146.7	-4422
3.29;3.29;	-4423
:+3;+3;-2;+3	-4424
0;33	-4425
▁72.0	-4426
:24;24;	-4427
2.57;2.5	-4428
321	-4429
▁77.8	-4430
▁87.7	-4431
:1.42;	-4432
▁118.1	-4433
▁167.6	-4434
1.67;1.6	-4435
11;14	-4436
▁71.5	-4437
▁95.5	-4438
▁98.5	-4439
▁11.42	-4440
:+1;+4;+	-4441
:+3;+2;-2;+	-4442
5;38	-4443
MnNa	-4444
▁86.0	-4445
▁87.4	-4446
▁108.7	-4447
:14;11;	-4448
:-1;-1;+1;+1;+	-4449
4;25	-4450
▁78.7	-4451
▁97.8	-4452
10;10;	-4453
▁103.8	-4454
▁11.38	-4455
:28;26;2	-4456
:1.70;2.0	-4457
:3.18;3.18;	-4458
ZrO	-4459
1.71	-4460
2;39	-4461
9;34	-4462
TmGe	-4463
12;15	-4464
:1.34;	-4465
2.82;2.8	-4466
2.83;2.8	-4467
2.21;2.21;	-4468
3;6	-4469
0;31	-4470
2.03;	-4471
2.06;	-4472
▁57.1	-4473
▁86.1	-4474
▁92.0	-4475
▁107.7	-4476
▁11.47	-4477
▁11.82	-4478
1.91;1.9	-4479
2.86;2.8	-4480
1;+1;+1;-2	-4481
:52;	-4482
2.07;	-4483
:2.26	-4484
▁55.0	-4485
▁87.9	-4486
▁88.3	-4487
3;2.43	-4488
▁102.3	-4489
▁11.53	-4490
2.16;2.0	-4491
2.53;2.5	-4492
3.60;3.5	-4493
4;29	-4494
6;36	-4495
:2.05	-4496
▁70.2	-4497
▁96.6	-4498
0;30;2	-4499
4;28;3	-4500
8;46;4	-4501
▁11.51	-4502
1.97;2.0	-4503
:1.70;1.7	-4504
:2.09;2.0	-4505
4;30	-4506
5;40	-4507
7;32	-4508
2.54;	-4509
2.56;	-4510
:35;2	-4511
▁84.1	-4512
▁87.8	-4513
▁11.58	-4514
3;+1;+2	-4515
2.51;2.5	-4516
:+4;-2;+	-4517
1;-2;+2;+2	-4518
5;36	-4519
16;20	-4520
▁25.7	-4521
▁62.1	-4522
▁65.6	-4523
▁94.6	-4524
2;2.42	-4525
▁100.3	-4526
3;+4;+4	-4527
1.66;1.6	-4528
2.20;2.0	-4529
2.85;2.8	-4530
:+1;+3;-	-4531
7;2.87;2.8	-4532
:18;16;16;	-4533
:42;42;44;44	-4534
:2.23	-4535
▁20.9	-4536
▁57.0	-4537
▁11.59	-4538
▁12.34	-4539
4;26;26	-4540
4;34;38	-4541
:2.07;2.0	-4542
:+1;+1;-2;+	-4543
:22;22;22;2	-4544
▁78	-4545
2.55;	-4546
▁20.6	-4547
▁87.5	-4548
▁Pmma	-4549
2;40;3	-4550
:1.41;	-4551
▁11.81	-4552
4;+3;+3	-4553
TbSi	-4554
:2.04	-4555
▁25.0	-4556
▁3.52	-4557
▁92.4	-4558
▁98.8	-4559
:38;38;38;4	-4560
ThTm	-4561
1.90;	-4562
2.00;	-4563
:2.03	-4564
▁20.8	-4565
▁21.8	-4566
▁86.2	-4567
▁87.1	-4568
▁Pbcn	-4569
▁11.68	-4570
2.04;2.0	-4571
:1.96	-4572
▁64.9	-4573
▁94.4	-4574
▁12.00	-4575
2.08;2.0	-4576
:30;30;2	-4577
HO	-4578
RhO	-4579
9;44	-4580
15;12	-4581
▁21.0	-4582
▁36.9	-4583
2;2.93	-4584
▁102.2	-4585
▁108.0	-4586
▁11.62	-4587
▁11.71	-4588
▁11.95	-4589
:20;19;	-4590
2.08;	-4591
▁27.2	-4592
▁57.3	-4593
▁71.2	-4594
▁71.8	-4595
▁CaCe	-4596
2;2.02	-4597
6;44;4	-4598
▁11.64	-4599
▁164.3	-4600
4;54;54	-4601
:+4;+3;+	-4602
:32;29;3	-4603
:+1;+2;-2;+	-4604
1;+1;+1;+3;+3;+3	-4605
4;+1	-4606
8;46	-4607
▁20.5	-4608
▁86.7	-4609
▁97.0	-4610
▁100.5	-4611
▁100.7	-4612
▁101.1	-4613
▁11.73	-4614
▁11.84	-4615
▁11.86	-4616
2;29;20	-4617
:18;14;	-4618
2.84;2.8	-4619
1;2.91;2.9	-4620
4;36	-4621
▁113	-4622
2;50;4	-4623
▁118.5	-4624
▁118.9	-4625
2.24;2.2	-4626
:26;23;2	-4627
:32;29;2	-4628
:2.01;2.0	-4629
2.70;2.70;	-4630
ZnH	-4631
▁53	-4632
RhRu	-4633
:2.25	-4634
▁34.5	-4635
▁94.3	-4636
:1.23;	-4637
▁11.85	-4638
3;-2;+1	-4639
4;+4;+3	-4640
2.09;2.0	-4641
2.20;2.20;	-4642
3.60	-4643
8;58	-4644
ThAs	-4645
ZnGe	-4646
:46;5	-4647
▁34.1	-4648
▁93.2	-4649
0;26;3	-4650
▁11.67	-4651
▁11.77	-4652
▁111.2	-4653
▁12.69	-4654
:12;15;	-4655
2.93;2.8	-4656
:18;26;2	-4657
46	-4658
7;28	-4659
▁68.9	-4660
▁93.6	-4661
▁97.9	-4662
▁98.7	-4663
1;33;3	-4664
▁11.90	-4665
▁11.93	-4666
2;+1;-2	-4667
2.07;2.0	-4668
:32;36;3	-4669
8;2.88;2.8	-4670
KMn	-4671
2.52;	-4672
3;1.4	-4673
▁22.0	-4674
▁101.0	-4675
▁11.40	-4676
▁11.87	-4677
▁170.2	-4678
:22;23;2	-4679
0;34;34;3	-4680
:22;30;30;34;22	-4681
RhH	-4682
:72;	-4683
▁68.6	-4684
0;2.89	-4685
0;2.91	-4686
2;2.91	-4687
▁108.5	-4688
▁11.34	-4689
▁111.0	-4690
▁118.3	-4691
▁167.8	-4692
:+3;-2;+3	-4693
1.95;1.95;	-4694
26;23	-4695
:2.22	-4696
▁92.7	-4697
▁96.9	-4698
▁CeHo	-4699
0;39;3	-4700
9;2.99	-4701
▁118.2	-4702
1.78;1.7	-4703
:+2;+1;-	-4704
0;18	-4705
▁3.51	-4706
▁78.0	-4707
18;21;	-4708
▁11.75	-4709
1.93;1.8	-4710
1.94;1.8	-4711
2.10;1.7	-4712
2.22;2.0	-4713
2.31;2.4	-4714
2.23;2.23;	-4715
2;-3	-4716
PrTb	-4717
8;29;	-4718
1;2.61	-4719
▁11.57	-4720
4;+4;+4	-4721
2.03;2.0	-4722
:-3;-3;-	-4723
:22;26;2	-4724
1;-2;-2;+5	-4725
VO	-4726
TmSi	-4727
9;29;	-4728
▁57.5	-4729
▁69.0	-4730
▁87.3	-4731
▁11.80	-4732
19;20;20	-4733
2.06;2.0	-4734
2.11;2.11;	-4735
:-3;+3;+3;+3;+3	-4736
YH	-4737
3.61	-4738
NaSr	-4739
SmGe	-4740
▁43.8	-4741
▁65.1	-4742
2;39;3	-4743
▁101.6	-4744
▁101.9	-4745
▁11.56	-4746
▁111.4	-4747
▁12.14	-4748
2.31;2.0	-4749
1;34	-4750
:36;2	-4751
▁36.8	-4752
▁68.8	-4753
1;2.51	-4754
▁154.4	-4755
:38;34;3	-4756
6;-2	-4757
7;44	-4758
PmPr	-4759
18;26	-4760
▁21.4	-4761
▁12.01	-4762
▁12.02	-4763
:18;22;	-4764
2.52;2.5	-4765
3.13;2.9	-4766
2;+2;+2;+2	-4767
3.36;3.36;	-4768
18;3	-4769
ThGe	-4770
▁22.4	-4771
▁70.0	-4772
5;2.45	-4773
▁11.83	-4774
▁110.0	-4775
▁13.12	-4776
2.50;2.4	-4777
3.03;2.9	-4778
:29;29;3	-4779
:30	-4780
5;28	-4781
▁220	-4782
▁27.3	-4783
1;26;2	-4784
7;2.47	-4785
▁100.4	-4786
2.05;2.0	-4787
:20;24;2	-4788
:41;41;4	-4789
5;42	-4790
▁CaCo	-4791
▁CoFe	-4792
▁Fmmm	-4793
0;26;2	-4794
▁12.74	-4795
5;-2;-2	-4796
2.00;2.0	-4797
2.21;2.0	-4798
2.50;2.5	-4799
3.11;2.9	-4800
:+4;+4;-	-4801
UP	-4802
0;39	-4803
2;-4	-4804
15;17	-4805
2.09;	-4806
20;18	-4807
:2.28	-4808
▁68.7	-4809
▁93.9	-4810
7;39;3	-4811
▁11.63	-4812
▁11.92	-4813
▁12.52	-4814
14;17;14	-4815
:25;25;2	-4816
1;-2;-2;+2	-4817
YAs	-4818
3.59	-4819
8;48	-4820
14;11	-4821
3.72;	-4822
:1.97	-4823
▁69.8	-4824
▁93.5	-4825
0;43;4	-4826
8;2.98	-4827
▁12.54	-4828
▁168.5	-4829
5;+3;+3	-4830
1.79;1.7	-4831
:26;25;2	-4832
2.71;2.71	-4833
:2.35;2.35;	-4834
:26;26;26;26;2	-4835
▁62.4	-4836
▁93.3	-4837
▁CaFe	-4838
▁100.6	-4839
▁11.65	-4840
▁12.26	-4841
▁12.30	-4842
▁12.80	-4843
2.37;2.4	-4844
:32;31;3	-4845
:+1;+3;-2;+	-4846
:3.16;3.16;	-4847
▁69.3	-4848
▁CeNd	-4849
1;2.41	-4850
▁12.53	-4851
▁12.68	-4852
0;20;19	-4853
1;+1;-2	-4854
17;17;17	-4855
:22;18;2	-4856
8;54;54;54	-4857
:+5;+1;-2;+	-4858
:42;38;38;3	-4859
▁93.1	-4860
▁11.76	-4861
▁12.77	-4862
▁12.93	-4863
▁120.8	-4864
1;+1;+4	-4865
2;+1;+1	-4866
1.03;1.0	-4867
:-2;+5;+	-4868
:32;33;3	-4869
:+3;-2;-2;-2;+	-4870
:38;38;38;38;3	-4871
TmP	-4872
LaNd	-4873
▁22.5	-4874
▁26.9	-4875
▁65.7	-4876
▁68.4	-4877
:0.76;	-4878
▁101.2	-4879
▁143.3	-4880
▁165.8	-4881
4;24;26	-4882
:+2;+1;+1;+	-4883
2;-2;-2;-2;-2;+	-4884
SmO	-4885
1.38	-4886
SmSi	-4887
1.24;	-4888
2.02;	-4889
:2.27	-4890
:25;3	-4891
▁22.2	-4892
▁34.2	-4893
2;28;2	-4894
6;2.46	-4895
7;33;3	-4896
▁101.7	-4897
▁111.5	-4898
▁12.18	-4899
▁12.35	-4900
:54;	-4901
:1.95	-4902
:1.98	-4903
▁23.9	-4904
▁97.6	-4905
:1.04;	-4906
▁101.8	-4907
▁102.0	-4908
▁102.1	-4909
▁118.8	-4910
▁12.83	-4911
2.72;2.72	-4912
YB	-4913
6;1.4	-4914
▁22.6	-4915
▁44.1	-4916
▁93.7	-4917
0;2.60	-4918
▁12.73	-4919
▁12.81	-4920
▁125.2	-4921
▁13.19	-4922
:44;44;3	-4923
3.13;3.13	-4924
1.98;1.98;	-4925
:3.17;3.17;	-4926
6;7	-4927
14;3	-4928
▁62.3	-4929
▁69.5	-4930
▁93.8	-4931
▁94.1	-4932
▁Fddd	-4933
▁110.4	-4934
▁120.9	-4935
▁13.14	-4936
▁164.1	-4937
2.23;2.0	-4938
:+5;+3;+3;+	-4939
UO	-4940
1;28	-4941
4;18	-4942
8;31	-4943
▁11.52	-4944
▁13.10	-4945
▁164.2	-4946
0;2.40;	-4947
2.70;2.8	-4948
:+3;+3;+2;+	-4949
:34;34;34;3	-4950
SrH	-4951
4;23	-4952
5;1.4	-4953
▁70.1	-4954
▁92.8	-4955
4;2.44	-4956
:1.21;	-4957
▁12.49	-4958
:20;22;	-4959
1.95;2.0	-4960
19;19;20	-4961
:28;34;3	-4962
:35;34;3	-4963
1;+1;+1;+3	-4964
3.30;3.30;	-4965
3;2.43;2.4	-4966
PdPt	-4967
1.30;	-4968
:2.08	-4969
:2.29	-4970
▁11.99	-4971
▁13.00	-4972
18;18;2	-4973
1.77;2.5	-4974
2.73;2.9	-4975
3.11;3.11	-4976
2.24;2.24;	-4977
2.77;2.76;	-4978
:3.19;3.19;	-4979
:23;20;20;20	-4980
KMg	-4981
1.84;	-4982
▁21.5	-4983
▁68.2	-4984
▁118.4	-4985
▁118.6	-4986
▁12.46	-4987
▁13.03	-4988
:-1;-1;+2;+2	-4989
0;7	-4990
:15	-4991
6;+4	-4992
:2.21	-4993
▁69.6	-4994
▁86.9	-4995
1;23;2	-4996
7;41;3	-4997
▁110.3	-4998
▁111.3	-4999
▁114.3	-5000
▁131.5	-5001
16;18;17	-5002
:+2;-1;-	-5003
3;28	-5004
4;+5	-5005
2;1.4	-5006
▁65.5	-5007
▁68.3	-5008
▁69.9	-5009
5;2.55	-5010
▁12.39	-5011
:16;20;	-5012
:22;22;	-5013
:32;26;3	-5014
3.12;3.12	-5015
:3.14;3.14;	-5016
:5.00	-5017
▁54.6	-5018
▁62.8	-5019
▁94.2	-5020
▁96.0	-5021
▁96.1	-5022
3;2.53	-5023
8;39;4	-5024
▁114.4	-5025
▁12.43	-5026
▁12.64	-5027
▁13.31	-5028
2.70;2.5	-5029
:35;35;3	-5030
:38;35;3	-5031
:2.03;2.0	-5032
:+2;+3;+4;+	-5033
:22;20;22;22	-5034
:2.90;2.90;2.9	-5035
2;-1	-5036
PmSm	-5037
1;2.01	-5038
▁12.23	-5039
▁13.53	-5040
1.89;1.8	-5041
2.33;2.0	-5042
2.94;2.8	-5043
:32;26;2	-5044
:33;33;3	-5045
:18;18;18	-5046
:2.02;2.0	-5047
2;46	-5048
▁65.0	-5049
▁94.0	-5050
▁95.9	-5051
4;2.93	-5052
9;2.69	-5053
▁110.1	-5054
5;-2;+3	-5055
:20;18;2	-5056
:37;36;3	-5057
5;2.95;2.9	-5058
:+5;+2;+2;+	-5059
:20;23;20;23	-5060
:50;50;50;50;5	-5061
TbP	-5062
2;21;	-5063
6;2.56	-5064
:1.26;	-5065
▁110.2	-5066
▁12.10	-5067
▁146.3	-5068
▁170.5	-5069
14;14;16	-5070
:+1;+4;-	-5071
:43;43;5	-5072
4;28;28;2	-5073
:+5;+3;+1;+	-5074
:+2;-2;-2;-2;+	-5075
RbF	-5076
1;1.4	-5077
:14;2	-5078
▁21.7	-5079
0;2.00	-5080
:1.24;	-5081
▁110.7	-5082
▁12.06	-5083
▁12.41	-5084
1.84;1.8	-5085
:-1;-2;+	-5086
3.09;3.09	-5087
▁17.1	-5088
▁3.50	-5089
▁53.9	-5090
▁101.4	-5091
▁110.6	-5092
▁115.1	-5093
▁118.7	-5094
▁12.51	-5095
1.76;1.8	-5096
:+3;+3;+3;-2	-5097
:+2;+3;-2;-2;+	-5098
72	-5099
RbH	-5100
TmH	-5101
2.67	-5102
6;+2	-5103
7;33	-5104
PtRh	-5105
▁21.9	-5106
▁62.2	-5107
▁92.9	-5108
3;45;4	-5109
▁11.96	-5110
▁165.1	-5111
2.80;2.8	-5112
:22;34;34;3	-5113
:42;42;42;42;42	-5114
ZrN	-5115
6;50	-5116
▁122	-5117
1.86;	-5118
2.04;	-5119
:2.09	-5120
:2.11	-5121
▁44.2	-5122
▁69.4	-5123
▁Pbcm	-5124
7;27;2	-5125
8;39;3	-5126
▁101.5	-5127
▁13.02	-5128
4;+2;+3	-5129
2.24;2.0	-5130
3.10;2.9	-5131
:34;30;3	-5132
:20;23;20;20	-5133
1.30	-5134
4;41	-5135
26;24	-5136
▁62.6	-5137
▁69.1	-5138
2;2.62	-5139
▁110.5	-5140
▁12.12	-5141
▁12.24	-5142
▁12.48	-5143
▁13.47	-5144
2.36;2.4	-5145
:-3;+1;+	-5146
:26;28;2	-5147
2.79;2.79;2.8	-5148
3;38	-5149
8;33	-5150
4;29;	-5151
:2.07	-5152
:2.30	-5153
8;2.58	-5154
▁111.1	-5155
▁12.08	-5156
▁12.28	-5157
▁12.33	-5158
▁12.42	-5159
▁12.72	-5160
19;20;19	-5161
:22;22;3	-5162
:32;32;2	-5163
3.08;3.08	-5164
2.22;2.22;	-5165
:16;18;18;	-5166
NdTb	-5167
:2.06	-5168
▁Pnnm	-5169
2;38;4	-5170
3;26;2	-5171
▁12.47	-5172
2.27;2.4	-5173
2.30;2.4	-5174
2.98;3.0	-5175
3.16;2.9	-5176
:23;26;2	-5177
:32;35;3	-5178
:18;18;15;15;	-5179
2;+5	-5180
2;41	-5181
13;15	-5182
▁27.4	-5183
3;2.63	-5184
▁12.20	-5185
▁12.75	-5186
▁131.4	-5187
2.72;2.5	-5188
:25;26;2	-5189
5;2.05;2.0	-5190
:2.38;2.38;	-5191
7;29	-5192
_122	-5193
▁Cmm	-5194
:23;3	-5195
▁34.7	-5196
▁54.1	-5197
7;46;4	-5198
▁113.9	-5199
▁115.0	-5200
▁13.42	-5201
▁13.49	-5202
0;20;26	-5203
4;-4;+2	-5204
:20;21;	-5205
2.15;1.7	-5206
:+4;+2;+	-5207
3.15;3.15	-5208
:2.00;2.0	-5209
:18;18;18;2	-5210
:44;42;42;44	-5211
18;12	-5212
▁44.0	-5213
▁64.6	-5214
▁67.0	-5215
▁67.8	-5216
▁87.2	-5217
▁DyIn	-5218
1;2.90	-5219
6;2.66	-5220
7;45;4	-5221
▁101.3	-5222
▁111.9	-5223
▁12.19	-5224
▁121.0	-5225
▁13.11	-5226
:20;17;	-5227
:-2;+2;+	-5228
:-4;-4;+	-5229
:32;30;3	-5230
1;-2;-2;-2	-5231
:20;23;23;20	-5232
7;+	-5233
3;34	-5234
:2.10	-5235
▁65.8	-5236
▁LaNd	-5237
9;2.90	-5238
▁12.29	-5239
▁12.40	-5240
▁12.56	-5241
▁12.61	-5242
▁12.87	-5243
▁132.1	-5244
2;22;20	-5245
2.95;2.8	-5246
:39;39;4	-5247
:41;41;3	-5248
2;34;34;22	-5249
3;2.93;2.9	-5250
1;-1;-1;-1;+	-5251
2;32;32;32;3	-5252
2.60	-5253
3;-4	-5254
11;12	-5255
▁34.3	-5256
▁12.45	-5257
▁12.70	-5258
▁12.94	-5259
▁12.96	-5260
▁13.08	-5261
:+2;+5;+	-5262
3.18;3.18	-5263
:2.46;2.4	-5264
3;-2;-2;-2	-5265
:2.91;2.91;2.9	-5266
1.80	-5267
6;38	-5268
▁204	-5269
0;46;4	-5270
4;2.54	-5271
:1.44;	-5272
▁111.6	-5273
▁112.2	-5274
▁12.15	-5275
▁12.76	-5276
▁12.95	-5277
1.82;1.8	-5278
2.12;1.7	-5279
2.13;1.7	-5280
2.32;2.0	-5281
2.62;2.5	-5282
2.77;2.78;	-5283
3.37;3.37;	-5284
MnO	-5285
7;27	-5286
8;50	-5287
4_122	-5288
:52;4	-5289
▁21.6	-5290
▁12.37	-5291
▁13.01	-5292
▁13.25	-5293
1.92;1.9	-5294
1.94;2.0	-5295
2.61;2.5	-5296
:1.71;2.0	-5297
64	-5298
7;26	-5299
7;39	-5300
16;19	-5301
▁43.9	-5302
▁54.5	-5303
▁AlFe	-5304
▁12.04	-5305
▁12.38	-5306
▁12.66	-5307
▁12.99	-5308
15;16;15	-5309
3.10;3.10	-5310
1.55;1.54;	-5311
3.31;3.31;	-5312
:+5;+2;+1;+	-5313
:36;36;36;3	-5314
2.65	-5315
3;36	-5316
19;21	-5317
▁65.3	-5318
▁AlCo	-5319
2;21;2	-5320
▁12.31	-5321
▁12.50	-5322
▁12.55	-5323
▁121.1	-5324
▁13.15	-5325
▁13.18	-5326
4;+4;+2	-5327
8;34;34	-5328
:16;13;	-5329
:18;15;	-5330
2.99;3.0	-5331
:40;40;3	-5332
:2.92;2.92;2.9	-5333
ThH	-5334
2.64	-5335
▁19.4	-5336
▁69.7	-5337
2;2.90	-5338
▁11.89	-5339
▁113.6	-5340
▁12.03	-5341
▁12.13	-5342
▁170.6	-5343
2;-2;+6	-5344
2.30;2.0	-5345
20;20;20;	-5346
:1.69;2.0	-5347
:15;12;12;	-5348
PrY	-5349
3;44	-5350
2;2.89	-5351
9;2.59	-5352
▁12.44	-5353
▁12.88	-5354
▁13.05	-5355
▁13.58	-5356
:26;22;	-5357
1.87;1.8	-5358
2.25;2.0	-5359
4;44;44;4	-5360
3.62	-5361
3;40	-5362
7;47	-5363
PmTb	-5364
▁43.7	-5365
▁CaCd	-5366
▁FeNa	-5367
1;26;3	-5368
9;2.88	-5369
▁12.65	-5370
:17;18;	-5371
:22;20;	-5372
1.86;1.8	-5373
3.32;3.32;	-5374
:22;28;28;3	-5375
amd	-5376
1;31	-5377
▁141	-5378
17;20	-5379
:1.94	-5380
:64;6	-5381
▁27.9	-5382
▁62.5	-5383
▁66.2	-5384
0;2.50	-5385
4;2.64	-5386
▁12.17	-5387
▁12.22	-5388
▁12.32	-5389
▁12.89	-5390
3;+2;-2	-5391
:28;29;3	-5392
7;2.97;2.9	-5393
:+4;+1;+1;+	-5394
:2.37;2.37;	-5395
:17;14;14;17	-5396
2.61	-5397
NdPm	-5398
▁65.9	-5399
▁67.9	-5400
2;40;4	-5401
8;41;3	-5402
▁113.4	-5403
▁12.09	-5404
▁12.71	-5405
▁13.33	-5406
▁13.34	-5407
0.97;2.0	-5408
3.15;2.9	-5409
:-3;+3;-	-5410
:22;24;2	-5411
:34;35;3	-5412
:37;37;3	-5413
:38;40;3	-5414
:42;44;4	-5415
:14;12;12;	-5416
▁36.1	-5417
▁12.21	-5418
▁13.38	-5419
2;22;18	-5420
4;+1;-2	-5421
1.75;1.8	-5422
2.27;2.0	-5423
:+3;+4;+1;+	-5424
2.50	-5425
3.63	-5426
3;33	-5427
LaPr	-5428
▁65.4	-5429
▁67.5	-5430
▁CaDy	-5431
▁13.13	-5432
1.90;1.9	-5433
:26;18;2	-5434
:48;48;4	-5435
:56;56;5	-5436
1.99;1.98;	-5437
:+2;+2;+4;-	-5438
:2.76;2.76;	-5439
:3.15;3.15;	-5440
0.98	-5441
:+6;+	-5442
▁27.0	-5443
▁66.0	-5444
▁66.1	-5445
4;74;7	-5446
7;2.67	-5447
▁113.5	-5448
▁12.60	-5449
▁13.52	-5450
2.63;2.5	-5451
:-3;-3;+	-5452
:38;44;3	-5453
2.36;2.37;	-5454
:+4;-2;-2;+	-5455
:24;24;24;2	-5456
19;3	-5457
2.66	-5458
1.04;	-5459
1.69;	-5460
:46;3	-5461
▁3.48	-5462
▁ErIn	-5463
3;2.92	-5464
▁11.91	-5465
▁12.78	-5466
▁170.3	-5467
2;+3;+2	-5468
SmP	-5469
TbB	-5470
2.52	-5471
RuSc	-5472
▁25.6	-5473
▁68.1	-5474
▁12.05	-5475
▁13.06	-5476
▁13.17	-5477
:15;17;	-5478
1.69;1.6	-5479
6;2.96;2.9	-5480
2;-2;-2;-2;-	-5481
:-3;-3;+3;+3;+3	-5482
7;8	-5483
19;17	-5484
26;29	-5485
▁62.7	-5486
0;2.93	-5487
1;2.89	-5488
1;2.92	-5489
▁114.0	-5490
▁12.16	-5491
▁12.67	-5492
▁13.07	-5493
▁13.23	-5494
▁13.35	-5495
4;+3;+2	-5496
1.71;1.7	-5497
2.16;1.7	-5498
2.34;2.4	-5499
2.38;2.37;	-5500
PmY	-5501
4;54	-5502
MgRh	-5503
TbAs	-5504
1.23;	-5505
▁36.2	-5506
5;2.65	-5507
7;2.57	-5508
8;2.68	-5509
8;29;3	-5510
▁11.98	-5511
▁114.1	-5512
▁12.25	-5513
▁12.59	-5514
▁12.98	-5515
▁13.20	-5516
▁13.46	-5517
2.96;2.8	-5518
:14;14;16;	-5519
:+5;+1;+1;+	-5520
:26;26;26;26;26;	-5521
ZrH	-5522
1.83;	-5523
▁26.0	-5524
▁3.49	-5525
0;2.81	-5526
8;2.89	-5527
▁13.59	-5528
:42;43;4	-5529
:+2;+3;+2;+	-5530
:2.36;2.36;	-5531
:12;12;12;12;	-5532
:2.93;2.93;2.9	-5533
0;27	-5534
3.84;	-5535
▁25.5	-5536
▁32.8	-5537
▁35.0	-5538
▁67.3	-5539
1;2.83	-5540
7;2.96	-5541
3;+2;+1	-5542
1.77;1.8	-5543
1.88;1.8	-5544
18;20;18	-5545
2.29;2.0	-5546
3;-2;-2;+5	-5547
:+2;+1;-2;+	-5548
1;36	-5549
1;44	-5550
▁32.6	-5551
▁35.2	-5552
1;29;3	-5553
3;2.03	-5554
▁112.3	-5555
▁12.27	-5556
▁13.27	-5557
▁146.8	-5558
3.21;2.9	-5559
:22;20;2	-5560
:34;26;3	-5561
:38;37;3	-5562
1.99;1.99	-5563
3.17;3.17	-5564
:1.50;1.50;1.5	-5565
TmB	-5566
5;44	-5567
6;41	-5568
7;41	-5569
ScSn	-5570
1.26;	-5571
▁22.3	-5572
▁22.9	-5573
▁34.6	-5574
▁35.3	-5575
▁37.3	-5576
▁64.5	-5577
▁65.2	-5578
▁66.6	-5579
2;-3;-	-5580
5;2.54	-5581
8;2.97	-5582
▁11.97	-5583
▁13.09	-5584
▁154.0	-5585
2;34;22	-5586
:24;25;2	-5587
:26;29;2	-5588
:29;34;3	-5589
4;2.44;2.4	-5590
4;2.94;2.9	-5591
TbH	-5592
12;16	-5593
▁3.43	-5594
9;2.49	-5595
▁121.2	-5596
4;-2;+5	-5597
:30;26;2	-5598
:2.10;2.0	-5599
1;-2;-2;+1	-5600
3.35;3.35;	-5601
:2.39;2.39;	-5602
:2.77;2.77;	-5603
:2.78;2.78;	-5604
GH	-5605
ErHo	-5606
18;15	-5607
18;24	-5608
▁63.5	-5609
▁67.4	-5610
▁67.7	-5611
▁86.8	-5612
▁13.30	-5613
▁14.55	-5614
▁165.3	-5615
1;+2;+2	-5616
5;+5;+5	-5617
3.12;2.9	-5618
USi	-5619
2;43	-5620
5;29	-5621
TmZn	-5622
2.05;	-5623
26;25	-5624
▁37.2	-5625
▁MnNa	-5626
▁111.7	-5627
▁113.1	-5628
▁113.8	-5629
▁12.07	-5630
▁12.79	-5631
18;18;19	-5632
3.17;2.8	-5633
:26;26;4	-5634
:34;38;3	-5635
4;34;34;3	-5636
:2.48;2.4	-5637
2.36;2.35;	-5638
:+1;-1;-1;+	-5639
:1.50;1.50;	-5640
KNi	-5641
3;42	-5642
4;27	-5643
TbTh	-5644
▁DyLa	-5645
▁ErLa	-5646
13;13;	-5647
:1.22;	-5648
▁11.94	-5649
▁112.0	-5650
▁113.7	-5651
▁116.5	-5652
▁13.24	-5653
▁13.32	-5654
▁13.50	-5655
1.49;1.5	-5656
2.70;2.9	-5657
2.89;2.9	-5658
3.04;2.9	-5659
:30;29;3	-5660
:34;34;2	-5661
2;+2;-2;+	-5662
:2.47;2.4	-5663
:14;17;14;17	-5664
2.56	-5665
7;42	-5666
16;12	-5667
▁3.46	-5668
▁111.8	-5669
▁12.63	-5670
▁12.86	-5671
▁13.04	-5672
▁13.16	-5673
▁13.28	-5674
▁13.41	-5675
1.83;1.8	-5676
:36;35;3	-5677
:1.65;1.6	-5678
:+2;+3;+3;-	-5679
:+2;+4;+1;+	-5680
:30;30;30;3	-5681
RuO	-5682
▁98	-5683
1;41	-5684
2.54	-5685
RhSc	-5686
:2.19	-5687
▁36.7	-5688
▁66.3	-5689
▁68.0	-5690
0;29;2	-5691
1;2.80	-5692
2;2.51	-5693
2;2.84	-5694
3;2.91	-5695
6;2.85	-5696
▁115.4	-5697
▁12.11	-5698
▁12.92	-5699
▁13.22	-5700
▁14.53	-5701
0;44;44	-5702
1.85;1.8	-5703
:20;19;2	-5704
3.14;3.14	-5705
8;8	-5706
0;19	-5707
5;41	-5708
8;27	-5709
InMg	-5710
3;2.94	-5711
7;40;3	-5712
:1.20;	-5713
▁112.1	-5714
▁125.3	-5715
▁13.39	-5716
▁13.62	-5717
0;20;18	-5718
5;+5;+3	-5719
1.70;1.7	-5720
1.74;2.0	-5721
1.93;2.0	-5722
3.20;2.9	-5723
:28;29;2	-5724
2.77;2.76	-5725
2.75;2.76;	-5726
:+3;+2;+1;+	-5727
20;20;20;14;14;	-5728
2.59	-5729
TmAs	-5730
1.85;	-5731
19;16	-5732
:2.17	-5733
▁3.29	-5734
2;37;3	-5735
4;39;4	-5736
5;2.84	-5737
6;40;3	-5738
:1.40;	-5739
▁113.0	-5740
▁116.1	-5741
▁13.26	-5742
▁13.64	-5743
▁13.93	-5744
▁14.52	-5745
1.73;2.4	-5746
2.71;2.5	-5747
3.05;2.9	-5748
:-1;+3;-	-5749
:22;21;2	-5750
:34;33;3	-5751
:16;15;15;	-5752
:3.25;3.25;	-5753
1;33	-5754
2.58	-5755
20;19	-5756
▁44.6	-5757
▁64.0	-5758
▁CaEr	-5759
0;28;3	-5760
8;2.48	-5761
▁112.8	-5762
▁12.36	-5763
▁12.57	-5764
▁12.62	-5765
▁13.36	-5766
▁13.68	-5767
▁13.85	-5768
2.59;2.6	-5769
:+3;-1;-	-5770
1.54;1.52	-5771
:-1;+3;+3	-5772
1;-2;+3;+3	-5773
:-3;-3;+4;+	-5774
:26;20;26;20	-5775
:+2;+2;+3;+3;+	-5776
IO	-5777
NaO	-5778
1.95	-5779
10;10	-5780
:2.18	-5781
▁36.4	-5782
▁HoIn	-5783
▁164.5	-5784
:26;23;	-5785
2.71;2.9	-5786
1.55;1.53;	-5787
1;-2;+4;+2	-5788
:2.28;2.28;	-5789
2;-2;-2;+3;+3	-5790
2.57	-5791
2.62	-5792
MnRh	-5793
3.83;	-5794
▁23.7	-5795
▁3.45	-5796
▁36.6	-5797
3;44;4	-5798
4;18;2	-5799
▁116.2	-5800
▁12.84	-5801
▁125.1	-5802
▁13.21	-5803
▁13.73	-5804
▁154.6	-5805
:20;23;	-5806
1.81;1.8	-5807
:26;29;3	-5808
:2.34;2.34;	-5809
:+2;+2;+2;-2;+	-5810
:2.94;2.94;2.9	-5811
SmH	-5812
VGe	-5813
2.55	-5814
3;30	-5815
8;20	-5816
ZrAs	-5817
▁104	-5818
▁3.47	-5819
▁CaNi	-5820
2;2.87	-5821
▁13.56	-5822
▁13.61	-5823
1.74;2.4	-5824
2.13;2.1	-5825
2.35;2.4	-5826
5;-2;-2;+	-5827
:2.44;2.4	-5828
:2.49;2.4	-5829
:14;14;17;	-5830
:20;26;26;	-5831
:2.79;2.79;	-5832
9;9	-5833
1.81	-5834
1;+5	-5835
2.51	-5836
9;42	-5837
1.22;	-5838
▁3.37	-5839
▁CeCs	-5840
5;40;3	-5841
7;2.86	-5842
7;2.89	-5843
▁116.4	-5844
▁12.85	-5845
▁12.97	-5846
▁14.34	-5847
▁14.47	-5848
▁154.5	-5849
:24;23;2	-5850
:44;45;4	-5851
0;2.90;2.9	-5852
1.64;1.61;	-5853
1;-2;-2;+6	-5854
2.33;2.34;	-5855
4;+1;+2;-2	-5856
:14;17;17;	-5857
:-3;-3;+3;+3	-5858
:17;14;17;14	-5859
ZrP	-5860
▁90	-5861
3.78;	-5862
:2.20	-5863
▁20.4	-5864
▁3.10	-5865
▁62.9	-5866
▁63.7	-5867
1;2.88	-5868
3;2.50	-5869
▁112.7	-5870
▁114.6	-5871
▁13.29	-5872
▁167.4	-5873
8;38;42	-5874
2.25;2.2	-5875
2.51;2.4	-5876
:2.45;2.4	-5877
:-3;+3;-3;+3	-5878
2.63	-5879
2;50	-5880
3.68	-5881
5;37	-5882
NiPt	-5883
TmSb	-5884
1.71;	-5885
26;28	-5886
3.86;	-5887
▁25.4	-5888
▁54.3	-5889
▁63.8	-5890
2;41;3	-5891
8;2.90	-5892
▁117.9	-5893
▁14.93	-5894
▁148.8	-5895
:22;21;	-5896
2;32;28;3	-5897
:1.55;1.5	-5898
6;2.46;2.4	-5899
UH	-5900
▁61	-5901
2;+6	-5902
2;25	-5903
3.69	-5904
19;22	-5905
:49;5	-5906
:57;5	-5907
▁34.9	-5908
▁35.1	-5909
▁44.3	-5910
5;29;3	-5911
▁114.5	-5912
▁13.66	-5913
▁132.2	-5914
▁14.61	-5915
▁167.9	-5916
1;2.01;	-5917
1.80;1.8	-5918
2.21;2.9	-5919
4;2.04;2.0	-5920
NdY	-5921
SmB	-5922
▁86	-5923
0;43	-5924
3.64	-5925
TiGe	-5926
1.27;	-5927
▁23.8	-5928
▁37.1	-5929
▁66.8	-5930
▁67.1	-5931
▁CeCo	-5932
2;2.97	-5933
9;2.92	-5934
▁117.8	-5935
▁146.2	-5936
▁150.1	-5937
16;16;16	-5938
:24;22;2	-5939
3.17;3.16;	-5940
:32;38;38;3	-5941
:26;26;26;26;22	-5942
1;29	-5943
7;30	-5944
PuSi	-5945
:55;5	-5946
▁22.1	-5947
▁26.8	-5948
▁35.9	-5949
▁63.6	-5950
0;2.83	-5951
0;2.88	-5952
4;2.82	-5953
5;2.86	-5954
▁110.8	-5955
▁13.48	-5956
▁13.84	-5957
▁14.57	-5958
5;-2;+2	-5959
:14;19;	-5960
:44;41;4	-5961
3;-2;-2;+2	-5962
:12;14;14;	-5963
:+3;-2;+5;+	-5964
:3.26;3.26;	-5965
19;19;19;19;	-5966
:+2;+2;+2;+4;+	-5967
5;23	-5968
PrGe	-5969
SrAs	-5970
3.77;	-5971
▁27.5	-5972
▁32.3	-5973
▁34.4	-5974
▁67.2	-5975
▁AgAu	-5976
0;3.00	-5977
2;2.83	-5978
3;2.84	-5979
5;2.83	-5980
8;2.87	-5981
9;2.91	-5982
▁12.90	-5983
▁13.51	-5984
▁13.76	-5985
▁14.85	-5986
2;+2;+1	-5987
2;18;18	-5988
:20;18;	-5989
:26;20;2	-5990
:40;36;3	-5991
2.39;2.39	-5992
2.75;2.74;	-5993
3.39;3.39;	-5994
▁73	-5995
▁54.4	-5996
▁64.4	-5997
7;2.95	-5998
▁114.2	-5999
▁114.8	-6000
▁12.82	-6001
▁13.67	-6002
▁150.4	-6003
2;+3;+3	-6004
6;6;6;6	-6005
1.78;1.8	-6006
2.58;2.6	-6007
3.16;2.8	-6008
:42;41;4	-6009
1;-2;+4;+4	-6010
2.33;2.32;	-6011
3;+4;+1;-2	-6012
:+2;+4;+4;+	-6013
:3.24;3.24;	-6014
:+2;+2;+2;-2;-2	-6015
1;27	-6016
3;19	-6017
LiMg	-6018
12;18	-6019
:51;5	-6020
▁26.6	-6021
▁3.44	-6022
▁63.9	-6023
2;2.88	-6024
3;39;4	-6025
4;2.83	-6026
7;26;3	-6027
7;29;3	-6028
▁13.74	-6029
▁14.76	-6030
2.97;2.8	-6031
2.98;2.8	-6032
3.24;2.9	-6033
:44;46;4	-6034
2.78;2.79;	-6035
:19;20;20;19	-6036
RuH	-6037
1.89	-6038
LaSm	-6039
PuGe	-6040
1.79;	-6041
▁27.7	-6042
▁53.8	-6043
1;2.82	-6044
2;2.94	-6045
7;2.59	-6046
▁12.58	-6047
▁13.57	-6048
▁13.79	-6049
▁131.3	-6050
▁14.84	-6051
▁165.2	-6052
2;48;42	-6053
3;+1;+3	-6054
26;29;18	-6055
2;2.52;2.5	-6056
:3.11;3.11;	-6057
:3.13;3.13;	-6058
:17;17;14;14	-6059
:18;18;18;18;2	-6060
1.78	-6061
3.70	-6062
7;46	-6063
SmAs	-6064
TbZn	-6065
17;15	-6066
3.73;	-6067
3.75;	-6068
:1.93	-6069
:15;2	-6070
▁22.8	-6071
▁3.08	-6072
▁64.2	-6073
14;13;	-6074
1;2.00	-6075
1;2.93	-6076
2;2.95	-6077
3;2.85	-6078
▁112.6	-6079
▁117.7	-6080
▁14.51	-6081
▁14.54	-6082
▁14.56	-6083
7;37;37	-6084
:16;19;	-6085
2.71;2.4	-6086
:33;36;3	-6087
:32;32;32	-6088
:2.27;2.27;	-6089
:3.10;3.10;	-6090
2.78;2.78;2.8	-6091
2;-2;-2;-2;+3	-6092
HSb	-6093
SSe	-6094
4;35	-6095
SmSr	-6096
3.85;	-6097
▁21.2	-6098
▁67.6	-6099
1;2.84	-6100
5;2.94	-6101
7;2.53	-6102
▁112.4	-6103
▁112.9	-6104
▁12.91	-6105
▁13.40	-6106
▁13.63	-6107
▁13.75	-6108
2;22;26	-6109
1.73;2.0	-6110
2.97;3.0	-6111
1.94;1.94;	-6112
2.19;2.19;	-6113
3.38;3.38;	-6114
5;2.45;2.4	-6115
:-1;+3;-2;+	-6116
:44;44;44;44;4	-6117
UGe	-6118
1.87	-6119
3.66	-6120
ScTm	-6121
▁3.28	-6122
▁66.7	-6123
▁Pbca	-6124
0;44;3	-6125
1;2.50	-6126
▁114.7	-6127
▁13.43	-6128
▁13.69	-6129
▁13.91	-6130
5;26;26	-6131
1.51;1.5	-6132
2.64;2.5	-6133
3.09;2.9	-6134
:+1;+3;+3;+	-6135
:2.26;2.26;	-6136
:38;34;34;3	-6137
:+3;+3;+3;+3;-3	-6138
6;9	-6139
YZn	-6140
5;30	-6141
▁200	-6142
18;23	-6143
▁14.1	-6144
▁3.40	-6145
▁36.5	-6146
▁44.4	-6147
▁64.1	-6148
▁66.4	-6149
▁66.5	-6150
▁113.3	-6151
▁118.0	-6152
▁13.45	-6153
▁13.55	-6154
▁14.35	-6155
▁142.9	-6156
1;-1;+2	-6157
1;-3;-3	-6158
6;-2;+3	-6159
:35;38;3	-6160
3.33;3.33;	-6161
:-1;+3;+3;+	-6162
2;-2;-2;-2;-2	-6163
0;8	-6164
5;22	-6165
:50;	-6166
SmTh	-6167
1.80;	-6168
17;19	-6169
▁29.8	-6170
▁3.14	-6171
▁3.31	-6172
▁43.6	-6173
▁44.8	-6174
▁63.3	-6175
▁NdNi	-6176
2;2.81	-6177
2;2.85	-6178
2;2.86	-6179
3;2.95	-6180
7;2.56	-6181
7;41;4	-6182
▁13.54	-6183
▁14.07	-6184
▁149.2	-6185
0;20;22	-6186
4;-2;+3	-6187
4;24;24	-6188
:21;21;	-6189
2;-2;-2;+5	-6190
:2.74;2.74;	-6191
:1.49;1.49;1.4	-6192
ScO	-6193
0;46	-6194
1.99	-6195
ScGe	-6196
TbSb	-6197
▁3.42	-6198
▁37.0	-6199
▁37.4	-6200
▁54.2	-6201
▁CaHf	-6202
▁DyNd	-6203
0;2.87	-6204
7;43;4	-6205
8;2.86	-6206
▁115.5	-6207
▁116.6	-6208
▁13.77	-6209
▁14.68	-6210
0;42;42	-6211
1;-1;+1	-6212
8;28;22	-6213
:19;16;	-6214
1.62;1.6	-6215
:+5;-2;+	-6216
3.07;3.07	-6217
2;-2;-2;-2;+4	-6218
1;24	-6219
3.65	-6220
TbTl	-6221
▁21.3	-6222
▁26.5	-6223
▁32.5	-6224
▁CeCu	-6225
2;2.99	-6226
3;2.81	-6227
4;2.92	-6228
8;29;2	-6229
9;2.94	-6230
▁13.44	-6231
▁13.97	-6232
▁14.58	-6233
▁14.63	-6234
▁14.95	-6235
▁165.0	-6236
5;-2;+4	-6237
:31;30;	-6238
2.23;2.2	-6239
26;26;24	-6240
3.19;2.8	-6241
0.99;0.99;	-6242
1;2.41;2.4	-6243
6;1.55;1.5	-6244
26;26;24;24	-6245
2;7	-6246
:11	-6247
ZrGe	-6248
▁3.32	-6249
▁3.41	-6250
4;1.74	-6251
7;2.54	-6252
7;2.58	-6253
7;2.84	-6254
7;39;4	-6255
▁150.6	-6256
0;40;40	-6257
:44;43;4	-6258
3.26;3.26	-6259
:1.82;1.8	-6260
2.35;2.34;	-6261
:+1;+2;+2;+	-6262
:3.12;3.12;	-6263
UAs	-6264
1;35	-6265
SrSi	-6266
20;14	-6267
▁63.1	-6268
0;2.82	-6269
3;2.80	-6270
▁112.5	-6271
▁14.59	-6272
▁14.67	-6273
▁14.69	-6274
2.17;1.7	-6275
:42;38;4	-6276
:45;45;4	-6277
2.33;2.33	-6278
3.15;3.16;	-6279
YN	-6280
7;22	-6281
▁165	-6282
0;2.86	-6283
0;2.94	-6284
1;1.99	-6285
2;2.01	-6286
4;2.86	-6287
4;2.91	-6288
5;2.89	-6289
6;2.88	-6290
▁116.0	-6291
▁117.1	-6292
▁13.60	-6293
2;-4;-4	-6294
:20;21;2	-6295
1.97;1.97	-6296
4;42;42;4	-6297
:3.20;3.20;	-6298
:26;26;20;20	-6299
1.92	-6300
1;50	-6301
DyEr	-6302
ThZn	-6303
:2.13	-6304
▁CeIn	-6305
0;2.92	-6306
2;45;4	-6307
6;3.06	-6308
7;2.55	-6309
7;2.88	-6310
▁115.7	-6311
▁121.3	-6312
▁14.88	-6313
▁149.3	-6314
▁149.8	-6315
2;2.02;	-6316
:22;23;	-6317
3.23;2.9	-6318
3.25;2.9	-6319
:37;35;3	-6320
:38;39;3	-6321
2.39;2.38;	-6322
ca	-6323
VAs	-6324
0;25	-6325
▁53.0	-6326
0;2.84	-6327
2;3.02	-6328
2;48;4	-6329
4;2.04	-6330
▁114.9	-6331
▁117.5	-6332
▁13.89	-6333
▁149.7	-6334
▁158.3	-6335
3.07;2.9	-6336
:26;27;2	-6337
:43;43;4	-6338
:+3;-1;+3	-6339
3.23;3.24;	-6340
:+2;+4;+4;-	-6341
:+2;-2;+5;+	-6342
HSi	-6343
ThB	-6344
10;8	-6345
6;43	-6346
HoTb	-6347
▁CsK	-6348
:60;5	-6349
▁3.34	-6350
▁32.4	-6351
2;2.80	-6352
5;2.87	-6353
6;2.84	-6354
6;2.94	-6355
▁116.3	-6356
▁14.23	-6357
▁14.39	-6358
▁149.4	-6359
3;+5;+5	-6360
:23;20;	-6361
:2.43;2.4	-6362
1;+1;+3;+3	-6363
2;2.42;2.4	-6364
HN	-6365
▁49	-6366
2.93	-6367
3;35	-6368
▁Ama	-6369
:2.12	-6370
▁26.7	-6371
12;13;	-6372
4;40;3	-6373
6;2.54	-6374
▁116.8	-6375
▁117.2	-6376
▁13.92	-6377
▁14.60	-6378
▁14.78	-6379
6;46;46	-6380
1.85;1.7	-6381
16;16;18	-6382
:1.64;1.6	-6383
3;+1;+1;-2	-6384
:+1;+1;+2;+	-6385
1.88	-6386
3.67	-6387
7;31	-6388
IrRu	-6389
PrSi	-6390
1.68;	-6391
▁3.39	-6392
▁CaCu	-6393
0;32;3	-6394
1;2.87	-6395
3;2.89	-6396
4;29;2	-6397
7;2.85	-6398
7;2.90	-6399
:1.33;	-6400
▁13.88	-6401
▁14.86	-6402
▁154.7	-6403
1.72;1.9	-6404
1.80;1.7	-6405
:32;38;3	-6406
:42;34;3	-6407
1.96;1.97;	-6408
3.15;3.14;	-6409
2;27	-6410
5;20	-6411
5;33	-6412
NiSr	-6413
PrTm	-6414
SmSb	-6415
1.37;	-6416
15;13	-6417
3.76;	-6418
▁53.7	-6419
▁HoLa	-6420
0;2.51	-6421
0;2.85	-6422
1;2.60	-6423
1;2.86	-6424
2;2.50	-6425
5;2.44	-6426
▁121.5	-6427
▁13.98	-6428
2.35;2.35	-6429
0.98;0.98;	-6430
4;-4;+2;+2	-6431
:+3;+1;-2;+5;+4	-6432
2.53	-6433
1.29;	-6434
:60;6	-6435
▁30.2	-6436
1;2.55	-6437
5;23;2	-6438
6;2.93	-6439
7;2.07	-6440
▁115.6	-6441
▁115.8	-6442
▁132.3	-6443
▁14.06	-6444
▁14.70	-6445
▁14.83	-6446
15;15;15	-6447
18;18;20	-6448
2.23;1.7	-6449
2.94;3.0	-6450
:29;32;2	-6451
2.14;2.14;	-6452
2.35;2.36;	-6453
:+1;+1;+3;+	-6454
:3.21;3.21;	-6455
:17;14;14;14	-6456
:20;20;19;19	-6457
3;-2;-2;-2;+3	-6458
RbGe	-6459
:59;5	-6460
▁3.07	-6461
▁3.36	-6462
▁35.4	-6463
▁44.7	-6464
▁BaFe	-6465
▁CoGa	-6466
▁ErNd	-6467
1;1.91	-6468
4;2.85	-6469
6;50;4	-6470
7;26;2	-6471
▁117.6	-6472
▁149.0	-6473
3;-3;+2	-6474
:17;20;	-6475
:18;21;	-6476
18;18;17	-6477
2.99;2.8	-6478
:29;29;2	-6479
1;-2;+5;+2	-6480
2.32;2.31;	-6481
TiH	-6482
4;43	-6483
9;37	-6484
RbAs	-6485
26;18	-6486
▁3.09	-6487
▁3.23	-6488
▁3.25	-6489
▁3.27	-6490
▁43.4	-6491
▁53.6	-6492
▁66.9	-6493
▁CePu	-6494
▁HoNi	-6495
0;2.79	-6496
0;21;2	-6497
2;2.98	-6498
3;2.82	-6499
8;2.91	-6500
8;45;4	-6501
▁13.37	-6502
▁14.97	-6503
▁148.7	-6504
▁148.9	-6505
3;+2;+4	-6506
3;+3;+1	-6507
3.06;2.9	-6508
:18;24;2	-6509
1;2.51;2.5	-6510
3.12;3.11;	-6511
:23;23;23;2	-6512
2.92	-6513
9;28	-6514
DyHo	-6515
NaGe	-6516
NaNi	-6517
▁28.6	-6518
▁CePr	-6519
▁HoNd	-6520
1;1.90	-6521
4;2.53	-6522
5;2.93	-6523
:12;9;	-6524
▁13.65	-6525
▁149.5	-6526
▁149.6	-6527
▁168.6	-6528
▁170.1	-6529
26;18;2	-6530
2;38;42	-6531
4;34;34	-6532
:25;25;	-6533
1.96;2.4	-6534
3.17;2.9	-6535
:14;14;14	-6536
2.27;2.26;	-6537
3.13;3.14;	-6538
3;-2;-2;+1	-6539
4;+4;+2;+2	-6540
:18;15;15;	-6541
:18;16;18;	-6542
:-3;+1;+1;+	-6543
:3.08;3.08;	-6544
:58;58;58;58	-6545
YS	-6546
ClO	-6547
MnH	-6548
TaO	-6549
1.76	-6550
9;36	-6551
26;27	-6552
:51;4	-6553
▁27.8	-6554
▁31.1	-6555
▁63.4	-6556
1;2.85	-6557
2;-1;+	-6558
2;2.47	-6559
2;52;4	-6560
3;2.52	-6561
4;2.88	-6562
5;2.90	-6563
7;2.51	-6564
7;2.83	-6565
8;2.96	-6566
▁13.71	-6567
▁14.40	-6568
▁14.96	-6569
2.65;2.5	-6570
:26;34;3	-6571
:30;26;3	-6572
3.47;3.47;	-6573
4;-2;-2;+3	-6574
:3.09;3.09;	-6575
:+2;+2;-2;+5	-6576
1;40	-6577
2.95	-6578
2;52	-6579
4;45	-6580
MnNi	-6581
ZnAs	-6582
3.79;	-6583
▁28.2	-6584
▁29.6	-6585
▁29.7	-6586
▁3.02	-6587
▁32.2	-6588
▁34.8	-6589
0;2.02	-6590
1;3.01	-6591
3;2.54	-6592
6;2.87	-6593
8;2.57	-6594
▁13.82	-6595
▁14.02	-6596
▁14.24	-6597
▁14.92	-6598
▁14.94	-6599
▁15.11	-6600
0;1.99;	-6601
3.15;2.4	-6602
3.17;2.4	-6603
2.32;2.32	-6604
:42;44;44	-6605
:-1;+2;-2;+	-6606
:-2;-4;-4;+	-6607
:42	-6608
PrO	-6609
1.86	-6610
1.98	-6611
▁223	-6612
▁29.0	-6613
▁3.33	-6614
▁32.0	-6615
▁35.7	-6616
▁63.2	-6617
▁CdIn	-6618
3;2.51	-6619
4;2.46	-6620
5;2.82	-6621
9;49;4	-6622
▁13.72	-6623
▁13.99	-6624
▁14.36	-6625
▁14.72	-6626
▁146.0	-6627
▁146.9	-6628
▁15.03	-6629
1;2.81;	-6630
2;29;32	-6631
9;56;56	-6632
:11;11;	-6633
:12;10;	-6634
1.38;2.4	-6635
2.22;1.7	-6636
2.52;2.4	-6637
:26;22;2	-6638
0;42;42;4	-6639
8;38;36;3	-6640
1;-2;+3;+4	-6641
1;2.01;2.0	-6642
2.18;2.18;	-6643
2.29;2.28;	-6644
:16;16;18;	-6645
:2.75;2.75;	-6646
:+2;+2;-4;+2	-6647
:-1;+1;+3;+2	-6648
5;27	-6649
LaPm	-6650
SbTe	-6651
3.74;	-6652
:1.90	-6653
▁LaPr	-6654
▁NdPr	-6655
3;3.03	-6656
4;2.89	-6657
5;1.62	-6658
5;2.52	-6659
▁121.7	-6660
▁13.86	-6661
▁13.90	-6662
▁14.48	-6663
▁14.81	-6664
▁14.89	-6665
▁14.98	-6666
▁15.21	-6667
2;2.40;	-6668
1.81;1.7	-6669
2.31;2.9	-6670
2.69;2.8	-6671
3.27;2.9	-6672
2.34;2.34	-6673
3.25;3.25	-6674
8;34;34;22	-6675
:2.33;2.33;	-6676
:+2;-4;+2;+2	-6677
:+5;+1;-2;+3	-6678
:20;22;22;22	-6679
1;39	-6680
3.90;	-6681
▁28.1	-6682
▁AlCd	-6683
0;27;2	-6684
6;2.95	-6685
▁117.0	-6686
▁124.8	-6687
▁13.78	-6688
▁13.96	-6689
▁14.05	-6690
▁14.38	-6691
▁15.00	-6692
▁15.01	-6693
3.22;2.9	-6694
:42;36;3	-6695
2.78;2.77	-6696
3.16;3.16	-6697
:2.41;2.4	-6698
1.03;1.03;	-6699
2.10;2.10;	-6700
2.25;2.26;	-6701
3.41;3.41;	-6702
:17;16;16;	-6703
:22;22;20;22	-6704
YSe	-6705
1.79	-6706
1;18	-6707
3.71	-6708
3;31	-6709
TmZr	-6710
▁108	-6711
1.47;	-6712
12;17	-6713
3.87;	-6714
▁3.04	-6715
0;2.61	-6716
5;3.05	-6717
6;+6;+	-6718
9;2.60	-6719
▁115.9	-6720
▁137.9	-6721
▁14.08	-6722
▁14.13	-6723
▁15.06	-6724
1;2.40;	-6725
4;2.44;	-6726
:17;19;	-6727
:26;29;	-6728
3.13;2.4	-6729
:29;26;2	-6730
2.27;2.27	-6731
:2.31;2.31;	-6732
:3.23;3.23;	-6733
PtO	-6734
1;42	-6735
9;41	-6736
3.89;	-6737
:1.92	-6738
▁28.9	-6739
▁3.26	-6740
▁3.30	-6741
▁43.5	-6742
▁CaIn	-6743
▁CoCu	-6744
▁DyNi	-6745
▁Ibca	-6746
2;2.46	-6747
2;46;4	-6748
5;2.05	-6749
5;2.80	-6750
5;2.88	-6751
5;2.92	-6752
7;2.52	-6753
8;2.47	-6754
9;40;3	-6755
▁14.14	-6756
▁14.82	-6757
▁14.87	-6758
▁15.71	-6759
▁150.5	-6760
▁154.9	-6761
2;-1;-2	-6762
:12;11;	-6763
:15;13;	-6764
12;14;14	-6765
2.31;2.5	-6766
:44;44;5	-6767
:46;45;4	-6768
:44;42;44;44;44	-6769
SrP	-6770
0;0;	-6771
1.97	-6772
2;62	-6773
IrRh	-6774
SmZn	-6775
▁125	-6776
▁28.4	-6777
▁29.4	-6778
▁3.35	-6779
▁32.1	-6780
▁FeLi	-6781
3;1.72	-6782
3;2.02	-6783
3;2.90	-6784
4;3.04	-6785
5;2.53	-6786
8;2.95	-6787
9;2.98	-6788
▁13.70	-6789
▁14.33	-6790
▁14.49	-6791
▁14.66	-6792
▁164.0	-6793
3;-3;-3	-6794
:17;15;	-6795
12;12;15	-6796
2.90;3.0	-6797
3.11;2.6	-6798
:31;31;3	-6799
:36;40;3	-6800
1;-1;-1;-	-6801
2.38;2.38	-6802
3.28;3.28	-6803
3.48;3.48;	-6804
3.49;3.49;	-6805
9;2.09;2.0	-6806
2.77;2.77;2.8	-6807
3;+3;+3;+3;+3	-6808
432	-6809
1.62	-6810
HoLa	-6811
NiPd	-6812
▁BaK	-6813
1.64;	-6814
▁28.3	-6815
▁3.03	-6816
▁37.5	-6817
▁64.3	-6818
▁ErHg	-6819
▁ErNi	-6820
2;2.41	-6821
3;2.87	-6822
3;2.96	-6823
5;55;5	-6824
▁117.4	-6825
▁121.6	-6826
▁131.2	-6827
▁14.10	-6828
▁14.43	-6829
▁14.65	-6830
▁14.99	-6831
▁15.79	-6832
5;-2;+5	-6833
0.98;2.0	-6834
2.95;3.0	-6835
2.96;3.0	-6836
:26;30;3	-6837
2.25;2.25	-6838
2.39;2.37;	-6839
3.19;3.18;	-6840
:2.73;2.73;	-6841
:14;16;16;17	-6842
:28;34;34;22;22	-6843
3;+1;+1;+1;+3;+3	-6844
3;39	-6845
4;+6	-6846
SeTe	-6847
▁209	-6848
0;22;	-6849
▁30.8	-6850
▁CuGa	-6851
0;2.56	-6852
0;2.95	-6853
3;1.77	-6854
4;2.81	-6855
4;2.95	-6856
4;2.96	-6857
6;2.91	-6858
7;2.94	-6859
9;2.57	-6860
9;2.87	-6861
▁124.9	-6862
▁131.1	-6863
▁14.00	-6864
▁14.29	-6865
▁146.1	-6866
▁15.10	-6867
▁15.73	-6868
1;2.41;	-6869
1.53;1.5	-6870
2.12;2.1	-6871
:44;42;44	-6872
2.27;2.28;	-6873
2.36;2.38;	-6874
5;1.64;1.6	-6875
8;38;38;38	-6876
:15;15;16;	-6877
:-1;+3;+1;+	-6878
1.95;1.95;2.0	-6879
3;+3;+1;+1;+1;+3	-6880
YTe	-6881
1.90	-6882
2;45	-6883
NdTm	-6884
NiGe	-6885
NiRu	-6886
PmTm	-6887
SrZn	-6888
▁111	-6889
:54;4	-6890
▁31.2	-6891
▁31.9	-6892
▁53.4	-6893
▁CaHo	-6894
▁FeMn	-6895
2;1.92	-6896
2;2.49	-6897
4;2.80	-6898
5;2.47	-6899
8;30;3	-6900
8;32;3	-6901
8;50;4	-6902
▁13.95	-6903
▁137.4	-6904
▁14.15	-6905
▁14.18	-6906
▁14.79	-6907
1;-1;+3	-6908
:23;23;	-6909
1.91;1.8	-6910
:19;19;2	-6911
1;-2;+2;+3	-6912
:3.27;3.27;	-6913
:19;20;19;20	-6914
:44;49;56;56	-6915
1;7	-6916
2.97	-6917
4;19	-6918
4;39	-6919
OsSc	-6920
ZnSi	-6921
1.67;	-6922
:33;4	-6923
▁23.0	-6924
▁28.0	-6925
▁3.06	-6926
▁35.5	-6927
▁36.3	-6928
0;2.53	-6929
0;2.97	-6930
2;2.45	-6931
2;2.61	-6932
5;2.91	-6933
6;2.55	-6934
6;2.89	-6935
8;2.93	-6936
9;2.97	-6937
:1.10;	-6938
▁14.37	-6939
▁14.77	-6940
▁150.0	-6941
0;50;50	-6942
:19;17;	-6943
2.20;2.2	-6944
2.22;2.2	-6945
:33;35;3	-6946
:37;34;3	-6947
1.95;1.95	-6948
14;12;12;	-6949
2;39;39;4	-6950
4;24;24;2	-6951
2.30;2.31;	-6952
3.20;3.19;	-6953
:-3;+2;+2;+	-6954
:20;19;20;19	-6955
:20;20;23;23	-6956
3;-2;-2;+3;+3	-6957
:2.87;2.87;2.8	-6958
WO	-6959
1.94	-6960
6;39	-6961
8;25	-6962
NdGe	-6963
PtSc	-6964
RuTm	-6965
▁Ima	-6966
222_1	-6967
5;1.3	-6968
▁3.38	-6969
0;51;4	-6970
7;2.93	-6971
8;2.51	-6972
9;44;4	-6973
▁117.3	-6974
▁14.30	-6975
▁147.0	-6976
▁15.25	-6977
▁150.3	-6978
▁155.6	-6979
:14;21;	-6980
:24;20;	-6981
1.54;1.4	-6982
15;15;16	-6983
3.10;2.6	-6984
3.23;2.8	-6985
1;-2;+3;+2	-6986
2;+2;-2;-2	-6987
3.12;3.13;	-6988
:+3;-2;+3;+3	-6989
:-1;+2;+1;+3	-6990
:+3;+3;+3;-2;+	-6991
0.8	-6992
2.90	-6993
:28;4	-6994
:42;5	-6995
▁29.5	-6996
▁DyFe	-6997
0;2.48	-6998
0;2.99	-6999
14;18;	-7000
1;2.40	-7001
1;2.54	-7002
2;2.04	-7003
2;2.60	-7004
3;1.73	-7005
3;2.97	-7006
7;2.50	-7007
8;2.59	-7008
9;2.93	-7009
9;41;3	-7010
▁14.03	-7011
▁14.17	-7012
▁14.28	-7013
▁14.46	-7014
▁14.71	-7015
▁147.6	-7016
▁15.12	-7017
▁15.69	-7018
0;34;34	-7019
8;28;28	-7020
:19;18;	-7021
19;19;19	-7022
2.72;2.9	-7023
:25;24;2	-7024
:43;34;3	-7025
:1.68;2.0	-7026
3.25;3.24;	-7027
:+2;+3;+1;+	-7028
:14;13;13;13	-7029
:20;26;26;20	-7030
:2.43;2.43;2.4	-7031
4;8	-7032
PuH	-7033
PuP	-7034
TaH	-7035
2.91	-7036
▁112	-7037
:56;6	-7038
▁21.1	-7039
▁27.1	-7040
▁CoNa	-7041
▁ErFe	-7042
0;2.49	-7043
1;2.94	-7044
2;1.72	-7045
4;2.90	-7046
4;53;5	-7047
5;2.46	-7048
6;2.06	-7049
8;2.94	-7050
▁121.4	-7051
▁13.87	-7052
▁14.11	-7053
▁14.25	-7054
▁148.3	-7055
▁15.75	-7056
▁158.1	-7057
0;34;22	-7058
2;2.38;	-7059
5;2.85;	-7060
19;19;18	-7061
3.08;2.8	-7062
:41;38;4	-7063
1.96;1.96	-7064
:2.42;2.4	-7065
:2.68;2.6	-7066
0.00;0.00;	-7067
0;2.00;2.0	-7068
1;+1;+2;-2	-7069
:2.70;2.70;	-7070
:19;19;20;20	-7071
:42;42;38;38;3	-7072
:+2;+1;-2;-2;+4	-7073
:+5;+3;+1;-2;+4	-7074
CN	-7075
VH	-7076
:26	-7077
AsP	-7078
1.93	-7079
HoNd	-7080
HoSm	-7081
10;12	-7082
26;32	-7083
▁43.3	-7084
▁DyHg	-7085
0;2.41	-7086
1;2.02	-7087
1;2.52	-7088
1;22;2	-7089
3;2.98	-7090
▁14.74	-7091
▁14.75	-7092
▁15.67	-7093
▁15.74	-7094
1;2.00;	-7095
2;-3;-3	-7096
3;2.43;	-7097
8;26;26	-7098
2.39;2.0	-7099
3.20;3.20	-7100
3.46;3.46;	-7101
:38;38;38;3	-7102
:-1;+1;+2;+3	-7103
:38;38;34;34;38	-7104
AsH	-7105
HoY	-7106
ScH	-7107
LiRh	-7108
PrTh	-7109
ScTb	-7110
▁Pca	-7111
14;10	-7112
3.82;	-7113
▁3.11	-7114
▁36.0	-7115
▁52.1	-7116
▁63.0	-7117
0;2.52	-7118
0;42;3	-7119
2;2.55	-7120
3;2.04	-7121
3;2.46	-7122
3;2.88	-7123
5;2.81	-7124
9;2.68	-7125
9;2.86	-7126
▁113.2	-7127
▁13.83	-7128
▁14.50	-7129
▁14.90	-7130
▁148.1	-7131
▁15.15	-7132
▁15.17	-7133
▁168.0	-7134
2;+2;+5	-7135
2.93;3.0	-7136
2;26;26;	-7137
:+5;+4;-	-7138
:35;33;3	-7139
1.55;1.53	-7140
:1.54;1.5	-7141
3.34;3.34;	-7142
3.43;3.43;	-7143
4;+1;+1;-2	-7144
4;1.64;1.6	-7145
:14;15;14;	-7146
:+2;+2;-1;+	-7147
:1.38;1.38;	-7148
:+5;+3;+1;-2	-7149
:+3;+1;-2;+5;+3	-7150
2.94	-7151
4;46	-7152
5;+6	-7153
5;31	-7154
PrRh	-7155
SnGe	-7156
14;19	-7157
20;17	-7158
3.81;	-7159
▁45.1	-7160
▁CePm	-7161
1;3.00	-7162
4;2.48	-7163
7;2.91	-7164
7;48;4	-7165
▁132.6	-7166
▁14.19	-7167
▁14.26	-7168
▁15.09	-7169
0;2.41;	-7170
1;-1;-1	-7171
2;2.82;	-7172
3;+4;+2	-7173
8;36;38	-7174
15;15;14	-7175
2.92;3.0	-7176
3.12;3.11	-7177
:1.97;2.0	-7178
2.40;2.40;	-7179
PuO	-7180
3;37	-7181
6;45	-7182
OsRu	-7183
▁KMn	-7184
13;16	-7185
▁30.5	-7186
▁54.0	-7187
▁BaCa	-7188
▁CeFe	-7189
▁CrFe	-7190
1;2.48	-7191
1;2.53	-7192
1;2.99	-7193
2;2.48	-7194
4;2.52	-7195
7;2.98	-7196
8;2.85	-7197
▁13.81	-7198
▁14.31	-7199
▁14.62	-7200
▁149.9	-7201
▁15.18	-7202
▁15.38	-7203
▁15.51	-7204
▁15.76	-7205
4;2.84;	-7206
8;34;38	-7207
1.79;1.8	-7208
2.91;3.0	-7209
:30;14;3	-7210
:39;39;3	-7211
1.98;1.98	-7212
2.37;2.37	-7213
:2.66;2.6	-7214
1;-2;+5;+5	-7215
5;2.04;2.0	-7216
:16;14;17;	-7217
:+3;+3;+4;+	-7218
:2.24;2.24;	-7219
7;37;37;37;3	-7220
2.39;2.39;2.4	-7221
:+3;+1;-2;-2;+4	-7222
:+3;+2;+3;-2;-2	-7223
KSr	-7224
8;8;	-7225
:64;	-7226
HoIn	-7227
MgNa	-7228
PrSr	-7229
1.25;	-7230
:65;6	-7231
▁23.1	-7232
▁CaLa	-7233
▁CsFe	-7234
0;1.99	-7235
2;2.57	-7236
4;2.97	-7237
5;2.97	-7238
7;2.80	-7239
8;27;2	-7240
▁15.07	-7241
▁15.66	-7242
1.82;1.7	-7243
:30;36;3	-7244
2.36;2.36	-7245
2.33;2.31;	-7246
:+2;+4;-2;+	-7247
:2.72;2.72;	-7248
6;34	-7249
7;24	-7250
:58;	-7251
RhSn	-7252
11;11	-7253
:68;6	-7254
▁2.99	-7255
▁44.5	-7256
▁ErHf	-7257
1;2.44	-7258
1;2.49	-7259
2;1.99	-7260
2;44;3	-7261
4;2.51	-7262
4;3.00	-7263
7;2.60	-7264
8;2.50	-7265
9;2.85	-7266
:1.25;	-7267
▁125.0	-7268
▁137.6	-7269
▁147.9	-7270
▁15.23	-7271
2;+1;+2	-7272
2;37;38	-7273
1.38;2.0	-7274
2.49;2.5	-7275
:23;22;2	-7276
:42;46;4	-7277
3.22;3.22	-7278
:1.73;1.7	-7279
2.65;2.65;	-7280
2;-2;+1;+4	-7281
3.52;3.52;	-7282
:15;14;14;	-7283
:20;18;18;	-7284
:48;48;48;4	-7285
:+2;+1;-2;+4	-7286
:20;19;19;20	-7287
:+2;+2;+3;+3;-	-7288
:2.46;2.46;2.4	-7289
:1.50;1.50;1.50;	-7290
nbm	-7291
7;45	-7292
:38;	-7293
CeLa	-7294
ScZn	-7295
TlSe	-7296
▁205	-7297
3.88;	-7298
:1.89	-7299
▁37.6	-7300
0;2.59	-7301
1;2.42	-7302
3;2.45	-7303
3;2.49	-7304
4;2.87	-7305
6;2.92	-7306
8;2.52	-7307
▁15.02	-7308
▁15.05	-7309
▁15.62	-7310
▁150.7	-7311
5;2.05;	-7312
1.50;1.4	-7313
16;16;15	-7314
2.21;2.2	-7315
:26;32;3	-7316
:37;38;3	-7317
:1.75;1.7	-7318
2.30;2.29;	-7319
2.37;2.38;	-7320
2.76;2.75;	-7321
3.08;3.09;	-7322
3.16;3.17;	-7323
3.44;3.44;	-7324
7;2.47;2.4	-7325
:25;25;26;2	-7326
:3.22;3.22;	-7327
:+3;+1;-2;-2;+	-7328
:2.85;2.85;2.8	-7329
UN	-7330
1.00	-7331
3;41	-7332
LaTb	-7333
ZrSi	-7334
▁3.00	-7335
▁3.12	-7336
▁3.15	-7337
▁3.20	-7338
▁30.9	-7339
▁31.6	-7340
▁52.3	-7341
▁53.2	-7342
▁CeNi	-7343
▁FeGa	-7344
0;1.98	-7345
1;1.98	-7346
1;2.46	-7347
1;2.65	-7348
1;2.79	-7349
1;2.98	-7350
2;2.00	-7351
3;2.42	-7352
6;2.82	-7353
6;2.90	-7354
7;38;4	-7355
8;2.55	-7356
9;35;3	-7357
▁137.5	-7358
▁14.27	-7359
▁15.26	-7360
▁150.2	-7361
6;-2;+4	-7362
1.45;1.5	-7363
3.13;2.8	-7364
:22;19;2	-7365
2.30;2.30	-7366
3.24;3.24	-7367
:2.61;2.6	-7368
8;44;44;44	-7369
12;12;12;12	-7370
:+3;-1;+1;+	-7371
2;+2;+2;+2;+	-7372
:22;22;30;30;34	-7373
BrO	-7374
1.85	-7375
1.91	-7376
8;10	-7377
8;54	-7378
TiAs	-7379
3.80;	-7380
▁28.7	-7381
▁29.9	-7382
▁3.05	-7383
▁31.4	-7384
▁45.0	-7385
2;1.87	-7386
4;25;2	-7387
4;41;3	-7388
8;2.92	-7389
9;2.55	-7390
▁14.12	-7391
▁143.4	-7392
▁148.2	-7393
▁149.1	-7394
0;35;26	-7395
6;36;36	-7396
1.39;2.4	-7397
3.18;2.8	-7398
:33;31;3	-7399
:34;31;3	-7400
1.54;1.51	-7401
2.28;2.28	-7402
:+3;+1;-2	-7403
2;-2;+2;+2	-7404
3.25;3.26;	-7405
:+4;+3;+3;+	-7406
:+5;+5;+1;+	-7407
:-1;+2;+2;+	-7408
:22;30;34;3	-7409
:32;29;29;3	-7410
:44;46;46;4	-7411
NdO	-7412
RbO	-7413
1;23	-7414
2.98	-7415
4;37	-7416
5;21	-7417
PdRu	-7418
PrSb	-7419
1.28;	-7420
1.82;	-7421
3.91;	-7422
▁24.1	-7423
▁3.01	-7424
▁3.16	-7425
▁35.8	-7426
▁AlCs	-7427
0;1.90	-7428
0;2.96	-7429
2;2.53	-7430
2;2.54	-7431
5;2.98	-7432
8;2.56	-7433
9;2.52	-7434
▁116.7	-7435
▁13.94	-7436
▁14.41	-7437
▁14.64	-7438
▁147.3	-7439
▁148.5	-7440
▁15.77	-7441
0;1.98;	-7442
:18;24;	-7443
3.07;2.8	-7444
:+4;+3;-	-7445
:26;35;3	-7446
:36;33;3	-7447
:41;43;4	-7448
:50;44;4	-7449
:50;46;4	-7450
2.24;2.24	-7451
2.31;2.31	-7452
2.15;2.15;	-7453
2.41;2.41;	-7454
3.29;3.28;	-7455
6;2.56;2.5	-7456
:26;20;20;26	-7457
1;-2;-2;+4;+4	-7458
:+1;-2;-2;-2;+	-7459
:+1;+3;-2;-2;+4	-7460
:30;30;34;22;22	-7461
1.54	-7462
HoTm	-7463
11;18	-7464
:45;3	-7465
▁3.21	-7466
▁3.24	-7467
▁45.3	-7468
▁53.1	-7469
2;2.43	-7470
2;2.96	-7471
7;1.77	-7472
8;2.84	-7473
9;2.95	-7474
▁147.5	-7475
▁148.0	-7476
▁15.16	-7477
▁15.72	-7478
19;19;2	-7479
2;+4;+4	-7480
4;2.64;	-7481
8;32;32	-7482
1.88;1.7	-7483
2.18;2.0	-7484
2.25;2.4	-7485
:-2;-3;-	-7486
:28;26;3	-7487
:30;29;2	-7488
:30;32;3	-7489
:38;39;4	-7490
2.13;2.12	-7491
2.26;2.26	-7492
:1.81;1.8	-7493
2.37;2.36;	-7494
3.71;3.71;	-7495
7;2.06;2.0	-7496
:22;18;18;	-7497
:2.29;2.29;	-7498
:3.19;3.18;	-7499
:32;38;37;3	-7500
:+3;+3;+2;+2;+	-7501
:+2;+3;+3;-4;+2	-7502
cc	-7503
422	-7504
NiH	-7505
nmc	-7506
1;37	-7507
2.99	-7508
9;48	-7509
PrZn	-7510
▁137	-7511
▁183	-7512
12;11	-7513
▁24.2	-7514
▁28.8	-7515
▁51.8	-7516
▁52.9	-7517
1;2.47	-7518
3;2.48	-7519
5;2.96	-7520
8;23;2	-7521
▁15.43	-7522
▁15.83	-7523
▁155.7	-7524
▁164.6	-7525
▁170.4	-7526
14;19;3	-7527
2;2.42;	-7528
2;42;38	-7529
4;-2;+2	-7530
3.28;2.9	-7531
:31;34;3	-7532
:37;40;3	-7533
3.19;3.19	-7534
3.29;3.29	-7535
:-1;+1;+2	-7536
1.93;1.93;	-7537
2.64;2.64;	-7538
3;+2;+2;+2	-7539
4;1.54;1.5	-7540
:2.82;2.82;	-7541
:3.18;3.17;	-7542
:+5;+2;+2;-2	-7543
:+2;-3;-3;+3;+	-7544
:22;28;28;34;22	-7545
5;7	-7546
PrH	-7547
0;56	-7548
LiPt	-7549
SmSn	-7550
▁Fmm	-7551
19;14	-7552
3.92;	-7553
▁27.6	-7554
▁31.8	-7555
▁52.2	-7556
▁53.5	-7557
0;2.42	-7558
2;2.05	-7559
2;3.00	-7560
3;26;3	-7561
6;2.68	-7562
6;2.83	-7563
7;2.81	-7564
7;2.99	-7565
▁121.8	-7566
▁132.4	-7567
▁15.08	-7568
▁15.28	-7569
▁15.34	-7570
▁15.39	-7571
▁15.57	-7572
12;6;6;	-7573
1;2.02;	-7574
2;2.52;	-7575
:21;20;	-7576
:26;24;	-7577
1.83;1.7	-7578
3.14;2.8	-7579
:29;30;3	-7580
:30;31;3	-7581
:-2;+3;+3	-7582
2;29;20;20	-7583
7;2.55;2.5	-7584
:2.84;2.84;	-7585
:44;44;44;4	-7586
17;17;17;17;17	-7587
:2.45;2.45;2.4	-7588
FO	-7589
4;52	-7590
5;18	-7591
5;46	-7592
7;25	-7593
:66;6	-7594
▁13.1	-7595
▁30.0	-7596
▁37.7	-7597
▁43.2	-7598
▁DyHf	-7599
0;2.98	-7600
1;2.58	-7601
4;3.01	-7602
4;50;4	-7603
5;2.42	-7604
5;2.64	-7605
8;2.54	-7606
8;2.60	-7607
9;2.51	-7608
▁126.9	-7609
▁14.04	-7610
▁14.91	-7611
▁15.24	-7612
▁15.58	-7613
0;35;34	-7614
3;2.42;	-7615
:22;16;	-7616
1.52;1.5	-7617
17;17;18	-7618
3.02;2.8	-7619
3.08;2.9	-7620
:+1;+5;+	-7621
:+1;-3;-	-7622
2.12;2.12	-7623
2.23;2.23	-7624
:1.63;1.6	-7625
:2.67;2.6	-7626
2.32;2.34;	-7627
2.44;2.44;	-7628
2.73;2.74;	-7629
2.78;2.77;	-7630
3.11;3.10;	-7631
:+2;+2;+3;-	-7632
:-3;-3;+1;+	-7633
:2.25;2.25;	-7634
:2.80;2.80;	-7635
:22;28;34;34;22	-7636
:13	-7637
PdO	-7638
7;50	-7639
BrCl	-7640
LiPd	-7641
MgNi	-7642
NdNi	-7643
ScSr	-7644
▁106	-7645
19;29	-7646
:1.87	-7647
▁29.2	-7648
▁3.17	-7649
▁3.19	-7650
▁31.7	-7651
▁44.9	-7652
▁52.5	-7653
▁AcAg	-7654
▁AlGa	-7655
0;2.57	-7656
0;2.58	-7657
12;20;	-7658
1;1.62	-7659
2;2.40	-7660
2;2.59	-7661
4;2.50	-7662
7;2.48	-7663
9;2.53	-7664
9;2.56	-7665
:12;12	-7666
▁14.16	-7667
▁14.20	-7668
▁148.4	-7669
▁15.22	-7670
1;1.98;	-7671
2;+1;+3	-7672
1.74;2.6	-7673
3.30;3.0	-7674
:18;16;2	-7675
:18;23;2	-7676
:24;18;2	-7677
:43;41;4	-7678
1.55;1.54	-7679
2.29;2.29	-7680
3.23;3.23	-7681
4;+4;+4;+4	-7682
7;2.08;2.0	-7683
:16;15;16;	-7684
:46;46;46;4	-7685
:2.89;2.89;2.9	-7686
:2.92;2.91;2.9	-7687
:2.97;2.97;2.9	-7688
CH	-7689
HP	-7690
:22	-7691
▁97	-7692
1;19	-7693
5;45	-7694
MnGe	-7695
PuRh	-7696
14;21	-7697
16;13	-7698
▁3.18	-7699
▁35.6	-7700
▁CeHf	-7701
3;2.61	-7702
4;2.99	-7703
4;38;4	-7704
7;2.49	-7705
▁131.0	-7706
▁14.09	-7707
▁14.21	-7708
1;-1;+4	-7709
2;28;34	-7710
2;34;30	-7711
3;2.03;	-7712
4;28;22	-7713
2.32;2.3	-7714
3.00;2.8	-7715
3.19;2.9	-7716
:27;26;2	-7717
:30;28;3	-7718
2.11;2.11	-7719
2;+1;+1;+	-7720
2.39;2.40;	-7721
:24;18;18;	-7722
:32;20;29;	-7723
:24;26;26;2	-7724
:2.95;2.95;2.9	-7725
:2.96;2.96;2.9	-7726
:38;38;42;42;4	-7727
:-1;+3;+3;-2;+4	-7728
2;-2;-2;-2;+4;+4	-7729
9;12	-7730
HoRh	-7731
RuSr	-7732
SmTe	-7733
TmSe	-7734
:1.91	-7735
▁28.5	-7736
▁InMg	-7737
2;1.97	-7738
3;2.41	-7739
3;2.57	-7740
3;29;3	-7741
4;-4;-	-7742
4;2.43	-7743
5;2.50	-7744
7;2.45	-7745
▁116.9	-7746
▁14.01	-7747
▁14.44	-7748
▁148.6	-7749
▁15.41	-7750
▁15.61	-7751
▁155.0	-7752
2;2.00;	-7753
2;2.41;	-7754
3;23;23	-7755
4;+1;+1	-7756
5;+5;+2	-7757
8;28;34	-7758
9;2.69;	-7759
1.74;1.8	-7760
2.74;2.4	-7761
3.03;2.8	-7762
3.10;2.8	-7763
3.12;2.6	-7764
:36;37;3	-7765
1.64;1.64	-7766
3.27;3.26;	-7767
19;19;19;19	-7768
:+2;+3;-3;-	-7769
:+3;+4;-2;+	-7770
:+5;+4;+1;+	-7771
:-1;-1;-1;-	-7772
1.64;1.61;2.5	-7773
:-2;-2;-2;-2;+	-7774
:18;18;18;18;22	-7775
:60	-7776
KGe	-7777
KRb	-7778
TlH	-7779
0;16	-7780
1.65	-7781
1.66	-7782
5;39	-7783
RuSn	-7784
ScZr	-7785
TaTi	-7786
TbTe	-7787
▁AcAu	-7788
▁BaCd	-7789
▁BiCe	-7790
0;1.96	-7791
0;2.64	-7792
0;38;4	-7793
3;2.56	-7794
4;2.02	-7795
5;1.65	-7796
5;2.67	-7797
6;2.51	-7798
6;2.62	-7799
6;2.97	-7800
6;29;3	-7801
7;2.68	-7802
▁14.73	-7803
▁15.19	-7804
▁15.32	-7805
▁15.37	-7806
▁15.56	-7807
▁15.64	-7808
2;-1;+2	-7809
2;36;32	-7810
4;2.04;	-7811
4;42;44	-7812
1.73;2.6	-7813
3.29;2.8	-7814
:-2;+1;+	-7815
:38;41;3	-7816
:43;45;4	-7817
2;28;34;3	-7818
:1.76;1.7	-7819
:2.62;2.6	-7820
:2.92;2.8	-7821
2.36;2.34;	-7822
2.67;2.67;	-7823
3;+3;+3;+2	-7824
0;2.80;2.80	-7825
14;14;14;14;	-7826
:42;44;44;44;44	-7827
:48;48;54;54;54	-7828
SnO	-7829
ZnF	-7830
▁91	-7831
2.96	-7832
3;29	-7833
NdSi	-7834
NiSc	-7835
PdSc	-7836
1.81;	-7837
10;14	-7838
▁31.5	-7839
▁AlMg	-7840
▁BaCo	-7841
0;2.62	-7842
1;2.95	-7843
2;36;4	-7844
3;2.60	-7845
5;2.41	-7846
5;3.04	-7847
7;2.92	-7848
8;2.67	-7849
8;36;4	-7850
8;49;4	-7851
9;2.50	-7852
:0.77;	-7853
▁13.80	-7854
▁14.22	-7855
▁14.32	-7856
▁14.42	-7857
▁147.4	-7858
▁15.29	-7859
4;+1;+2	-7860
:13;16;	-7861
:+6;-2;+	-7862
:22;28;3	-7863
2.32;2.33;	-7864
3.10;3.09;	-7865
:20;26;20;26	-7866
2.44;2.44;2.4	-7867
:+3;+3;+3;+4;+	-7868
:2.42;2.42;2.4	-7869
:56;56;56;56;56	-7870
ScP	-7871
1.64	-7872
1;25	-7873
2.05	-7874
4;56	-7875
5;50	-7876
▁192	-7877
1.21;	-7878
11;17	-7879
3;23;	-7880
▁29.3	-7881
▁BaCu	-7882
▁CaCs	-7883
▁CdEr	-7884
▁LiMg	-7885
▁MnNi	-7886
0;2.43	-7887
1;2.96	-7888
2;2.63	-7889
3;2.62	-7890
4;1.73	-7891
4;3.03	-7892
8;2.99	-7893
9;2.58	-7894
▁121.9	-7895
▁124.5	-7896
▁133.9	-7897
▁15.48	-7898
▁15.78	-7899
▁154.8	-7900
▁165.7	-7901
▁166.2	-7902
▁168.4	-7903
1;2.80;	-7904
2;1.72;	-7905
3;+5;+3	-7906
6;36;38	-7907
1.84;1.7	-7908
1.92;1.8	-7909
26;26;22	-7910
:+4;-3;-	-7911
:26;28;3	-7912
:34;29;3	-7913
:40;41;4	-7914
1.56;1.54	-7915
:2.93;2.8	-7916
1;-1;-1;+2	-7917
1;-1;-1;+3	-7918
2;-2;-2;+1	-7919
3;+1;-2;+4	-7920
:19;19;19;	-7921
:2.14;2.14;	-7922
:3.07;3.07;	-7923
:+3;+1;-2;+4	-7924
:-3;+3;+3;-3	-7925
:14;17;16;16	-7926
:2.88;2.88;2.8	-7927
4;33	-7928
6;35	-7929
:31;	-7930
NdRh	-7931
PtRu	-7932
RbTl	-7933
SmTl	-7934
20;16	-7935
▁53.3	-7936
0;2.47	-7937
1;1.94	-7938
1;2.59	-7939
1;2.64	-7940
3;1.61	-7941
3;2.47	-7942
5;2.04	-7943
6;2.80	-7944
8;2.49	-7945
▁124.6	-7946
▁147.8	-7947
▁15.14	-7948
▁15.35	-7949
▁15.53	-7950
▁15.59	-7951
▁162.7	-7952
▁168.1	-7953
14;19;2	-7954
1;1.99;	-7955
2;-3;+3	-7956
3;2.41;	-7957
:20;14;	-7958
:29;29;	-7959
2.66;2.5	-7960
:32;28;3	-7961
:40;35;3	-7962
2.77;2.75	-7963
:2.12;2.0	-7964
:2.13;2.0	-7965
:2.40;2.4	-7966
1.97;1.98;	-7967
2.77;2.75;	-7968
2;44;44;44	-7969
3.40;3.40;	-7970
3.70;3.70;	-7971
6;2.06;2.0	-7972
9;2.89;2.9	-7973
:+5;-2;-2;+	-7974
:2.20;2.20;	-7975
:+2;-1;-1;+2	-7976
:-1;-1;-1;+1;+	-7977
cm	-7978
0;52	-7979
1.83	-7980
12;9	-7981
2.48	-7982
7;48	-7983
ErLa	-7984
RbSb	-7985
▁102	-7986
1.62;	-7987
:62;5	-7988
▁30.4	-7989
▁43.0	-7990
▁52.0	-7991
▁CrNa	-7992
▁DyPd	-7993
0;1.97	-7994
0;2.45	-7995
0;2.46	-7996
1;2.45	-7997
1;2.62	-7998
1;3.03	-7999
3;2.06	-8000
3;2.58	-8001
3;2.67	-8002
3;2.99	-8003
4;2.57	-8004
6;2.99	-8005
7;2.46	-8006
7;2.61	-8007
7;2.62	-8008
▁125.4	-8009
▁138.2	-8010
▁15.04	-8011
▁15.13	-8012
▁15.44	-8013
▁15.63	-8014
▁15.81	-8015
3;2.63;	-8016
1.88;1.9	-8017
1.89;1.9	-8018
1.90;1.8	-8019
3.15;2.8	-8020
:28;22;2	-8021
:46;44;4	-8022
:2.65;2.6	-8023
3.16;3.15;	-8024
3.22;3.23;	-8025
3.51;3.51;	-8026
7;2.46;2.4	-8027
:16;17;17;	-8028
:+3;+1;-2;+	-8029
:1.71;1.71;	-8030
:22;28;28;2	-8031
:16;16;14;17	-8032
UB	-8033
7;7	-8034
CGe	-8035
1.61	-8036
1.84	-8037
1;-4	-8038
2.42	-8039
2;16	-8040
PuAs	-8041
PuTh	-8042
TbSe	-8043
TiSi	-8044
1.36;	-8045
:2.15	-8046
▁31.0	-8047
▁31.3	-8048
▁52.7	-8049
▁CePd	-8050
▁CoMn	-8051
▁NdPd	-8052
0;2.44	-8053
1;2.57	-8054
4;2.56	-8055
5;2.43	-8056
5;2.49	-8057
9;2.61	-8058
:15;9;	-8059
:42;42	-8060
▁124.7	-8061
▁137.7	-8062
▁15.46	-8063
▁15.65	-8064
▁15.70	-8065
0;36;36	-8066
1;-1;-2	-8067
6;43;43	-8068
7;2.54;	-8069
1.60;1.6	-8070
2.16;2.1	-8071
3.28;2.8	-8072
3.29;2.9	-8073
:28;30;3	-8074
2.21;2.21	-8075
2.22;2.22	-8076
2.72;2.71	-8077
3.21;3.21	-8078
:2.60;2.6	-8079
1.96;1.95;	-8080
2.34;2.35;	-8081
2.78;2.76;	-8082
3.18;3.16;	-8083
:15;16;16;	-8084
:16;14;14;	-8085
:+3;+3;+4;-	-8086
:-1;-1;+3;+	-8087
:2.24;1.77;	-8088
:2.69;2.69;	-8089
:2.71;2.71;	-8090
:2.81;2.81;	-8091
:22;29;34;3	-8092
:3.28;3.28;	-8093
:18;14;14;14	-8094
2;-2;-2;-2;+2	-8095
:58;58;58;58;5	-8096
:3.25;3.25;3.25;	-8097
PrB	-8098
TiV	-8099
TmN	-8100
▁67	-8101
2.47	-8102
6;37	-8103
2;18;	-8104
:1.88	-8105
▁2.97	-8106
▁23.6	-8107
▁3.13	-8108
▁45.2	-8109
▁AlCr	-8110
▁AlCu	-8111
▁CdDy	-8112
▁HfNb	-8113
▁HoPd	-8114
0;18;2	-8115
1;1.89	-8116
2;1.98	-8117
2;2.56	-8118
2;3.01	-8119
3;2.64	-8120
3;39;3	-8121
4;1.72	-8122
5;2.51	-8123
5;2.66	-8124
6;1.66	-8125
7;1.73	-8126
7;37;4	-8127
9;2.62	-8128
▁138.1	-8129
▁15.90	-8130
▁155.8	-8131
2;+3;+4	-8132
2;29;29	-8133
2;38;37	-8134
3;-2;+6	-8135
3;2.40;	-8136
6;44;44	-8137
8;2.48;	-8138
:20;26;	-8139
1.00;2.0	-8140
1.87;2.0	-8141
2;30;30;3	-8142
3.27;3.27	-8143
:+3;+3;-2	-8144
:1.67;1.6	-8145
:1.78;3.7	-8146
0;2.50;2.5	-8147
1;-2;+5;+1	-8148
2.34;2.33;	-8149
3;2.02;2.0	-8150
:+5;+5;+2;+	-8151
:2.44;2.44;	-8152
:+3;+1;-2;+3	-8153
12;6;6;6;6;6;6	-8154
:+3;+2;+2;+2;+	-8155
ScY	-8156
▁Ae	-8157
2;54	-8158
8;47	-8159
RhTm	-8160
:58;6	-8161
▁20.1	-8162
▁22.7	-8163
▁CoNi	-8164
▁LaPm	-8165
1;1.96	-8166
1;2.06	-8167
3;3.01	-8168
4;2.47	-8169
4;2.65	-8170
4;2.98	-8171
6;3.04	-8172
8;44;3	-8173
▁14.80	-8174
▁147.1	-8175
▁147.7	-8176
▁15.27	-8177
▁15.47	-8178
▁156.1	-8179
▁16.24	-8180
▁16.59	-8181
1;2.38;	-8182
2;2.62;	-8183
5;2.65;	-8184
6;2.86;	-8185
:11;14;	-8186
0.98;0.9	-8187
1.88;2.0	-8188
14;16;17	-8189
2.27;2.2	-8190
:28;25;2	-8191
:41;39;4	-8192
3.18;3.17	-8193
4;44;44;3	-8194
8;42;42;4	-8195
:1.66;1.6	-8196
2.17;2.17;	-8197
2.74;2.75;	-8198
8;28;28;28	-8199
:-1;+1;+3;-2	-8200
2.77;2.77;2.77	-8201
:-1;-1;-1;-1;+	-8202
SmS	-8203
0;37	-8204
2.43	-8205
3.72	-8206
HoNa	-8207
4.05;	-8208
4.06;	-8209
:13;2	-8210
:2.14	-8211
▁25.3	-8212
▁30.6	-8213
▁MgNa	-8214
0;2.54	-8215
0;3.01	-8216
2;1.89	-8217
2;2.44	-8218
3;2.05	-8219
3;2.44	-8220
3;2.59	-8221
5;2.40	-8222
5;2.48	-8223
7;50;4	-8224
8;3.00	-8225
▁15.52	-8226
▁15.60	-8227
3;+5;+4	-8228
3;26;18	-8229
7;2.47;	-8230
0.99;1.4	-8231
1.96;1.7	-8232
14;14;12	-8233
14;17;16	-8234
2.26;2.2	-8235
2.33;2.9	-8236
:18;19;2	-8237
:32;28;2	-8238
:39;36;3	-8239
:42;39;4	-8240
:48;46;4	-8241
:54;54;5	-8242
:1.74;1.7	-8243
0;2.60;2.6	-8244
3;+1;+1;+1	-8245
:15;17;17;	-8246
:18;20;20;	-8247
:+5;+3;-2;+	-8248
:2.83;2.83;	-8249
:14;17;17;14	-8250
2;-2;-2;+2;+2	-8251
:22;29;34;34;22	-8252
KH	-8253
PdH	-8254
mcc	-8255
2;56	-8256
8;43	-8257
19;24	-8258
▁20.2	-8259
▁3.22	-8260
▁42.1	-8261
▁52.6	-8262
▁AlBa	-8263
▁AlCa	-8264
▁CdHg	-8265
▁CuIn	-8266
1;2.05	-8267
1;24;2	-8268
2;27;2	-8269
3;2.40	-8270
3;2.69	-8271
6;2.52	-8272
6;2.53	-8273
6;2.81	-8274
7;2.64	-8275
7;2.66	-8276
▁122.2	-8277
▁15.31	-8278
▁151.5	-8279
2;18;22	-8280
2;32;29	-8281
4;+3;+4	-8282
4;2.43;	-8283
5;2.04;	-8284
8;50;50	-8285
:13;15;	-8286
1.69;1.7	-8287
1.89;1.7	-8288
18;18;16	-8289
:-1;+1;-	-8290
:24;20;2	-8291
:35;32;3	-8292
:40;39;4	-8293
:44;34;3	-8294
1.54;1.50	-8295
3.06;3.06	-8296
3.08;3.07	-8297
3.11;3.10	-8298
:2.63;2.6	-8299
1.55;1.55;	-8300
1.96;1.99;	-8301
1.97;1.99;	-8302
1.98;1.99;	-8303
3.21;3.20;	-8304
3;-2;+3;+3	-8305
4;+1;-2;+3	-8306
4;34;38;38	-8307
6;1.56;1.5	-8308
:+4;+3;+1;+	-8309
:2.43;2.43;	-8310
:26;24;24;2	-8311
:38;42;42;3	-8312
:2.47;2.47;2.4	-8313
:22;22;34;34;3	-8314
:44;44;42;42;4	-8315
TbS	-8316
ThO	-8317
1.82	-8318
2.46	-8319
4;74	-8320
InLi	-8321
RuTb	-8322
▁30.7	-8323
▁52.8	-8324
▁ErRh	-8325
▁NdPm	-8326
1;2.56	-8327
2;2.58	-8328
2;2.79	-8329
2;3.03	-8330
2;53;5	-8331
3;2.65	-8332
3;2.86	-8333
4;2.55	-8334
4;2.63	-8335
5;2.62	-8336
5;41;3	-8337
6;2.98	-8338
8;2.83	-8339
9;2.47	-8340
▁122.3	-8341
▁133.8	-8342
▁139.3	-8343
▁15.33	-8344
▁151.8	-8345
▁155.9	-8346
▁166.1	-8347
2;32;31	-8348
3;2.83;	-8349
5;2.45;	-8350
8;38;36	-8351
1.01;2.0	-8352
1.90;2.0	-8353
2.11;2.1	-8354
2.54;2.4	-8355
:20;26;3	-8356
:22;30;3	-8357
:30;33;3	-8358
:38;41;4	-8359
:2.11;2.0	-8360
2.28;2.26;	-8361
2.37;2.34;	-8362
3.21;3.22;	-8363
3.55;3.55;	-8364
:15;15;14;	-8365
:+3;+2;+4;+	-8366
:+5;-1;+1;+	-8367
:14;12;13;13	-8368
2.92;2.92;2.9	-8369
3.13;3.13;3.13	-8370
:28;28;34;22;22	-8371
:3.17;3.17;3.17;	-8372
NaH	-8373
TbN	-8374
1.70	-8375
6;32	-8376
7;23	-8377
TcTm	-8378
▁ABC	-8379
▁CaK	-8380
8;2.1	-8381
:61;6	-8382
▁16.2	-8383
▁45.4	-8384
▁51.7	-8385
▁HoRh	-8386
▁LaNi	-8387
1;2.97	-8388
2;1.91	-8389
4;56;5	-8390
5;2.58	-8391
5;3.03	-8392
6;2.45	-8393
6;2.69	-8394
7;49;4	-8395
8;2.46	-8396
8;2.81	-8397
9;2.09	-8398
9;3.00	-8399
▁132.7	-8400
▁139.8	-8401
▁15.49	-8402
▁15.84	-8403
▁151.4	-8404
▁16.37	-8405
▁164.7	-8406
▁17.01	-8407
2;30;34	-8408
4;-4;+1	-8409
5;24;24	-8410
0.99;1.5	-8411
1.44;1.5	-8412
1.92;2.0	-8413
15;16;16	-8414
2.32;2.9	-8415
2.48;2.5	-8416
3.22;2.8	-8417
:+4;-1;+	-8418
:20;17;2	-8419
:36;38;3	-8420
0;38;38;3	-8421
1.55;1.51	-8422
2.10;2.10	-8423
3.17;3.18	-8424
:2.08;2.0	-8425
1;+1;+1;+1	-8426
2.68;2.68;	-8427
3.42;3.42;	-8428
3.45;3.45;	-8429
3;+2;+3;+4	-8430
4;-2;-2;-2	-8431
:+2;-2;+6;+	-8432
:2.60;2.60;	-8433
:+1;+1;-3;+3	-8434
:+5;+5;+2;+2;+	-8435
:2.81;2.81;2.8	-8436
:+3;+2;+3;-2;+3	-8437
:15;18;12;12;15	-8438
7;43	-8439
8;68	-8440
9;26	-8441
▁215	-8442
▁CeK	-8443
5;18;	-8444
:27;4	-8445
:45;5	-8446
BCDEF	-8447
▁CoIn	-8448
▁ErPd	-8449
0;2.08	-8450
1;1.97	-8451
2;2.06	-8452
2;2.66	-8453
3;1.63	-8454
6;2.67	-8455
7;2.82	-8456
8;2.62	-8457
8;2.69	-8458
9;2.82	-8459
:28;8;	-8460
:9;10;	-8461
▁147.2	-8462
▁156.5	-8463
▁156.6	-8464
▁156.8	-8465
▁16.61	-8466
▁170.7	-8467
0;2.79;	-8468
1;2.49;	-8469
2;+1;+4	-8470
2;-4;+3	-8471
4;-2;+4	-8472
4;36;36	-8473
5;2.44;	-8474
8;2.88;	-8475
1.48;1.4	-8476
1.77;2.0	-8477
2.29;2.2	-8478
2.35;2.0	-8479
2.36;2.0	-8480
2.47;2.5	-8481
3.06;2.8	-8482
3.12;2.8	-8483
3.25;2.8	-8484
:31;30;3	-8485
:31;31;2	-8486
:34;28;3	-8487
:39;40;3	-8488
:40;34;3	-8489
:47;47;5	-8490
2.76;2.75	-8491
3.53;3.53	-8492
2.38;2.36;	-8493
2;+3;+3;+3	-8494
3.54;3.54;	-8495
7;2.57;2.5	-8496
8;2.08;2.0	-8497
:2.86;2.86;	-8498
:+2;+2;-2;+4	-8499
:-1;+3;+1;+2	-8500
:14;14;14;18	-8501
:-3;-3;+1;+1;+	-8502
:2.91;2.90;2.9	-8503
:+3;+3;+1;-2;+5	-8504
:3.18;3.18;3.18;	-8505
6;8	-8506
PrAs	-8507
PuSm	-8508
PuTe	-8509
ScSi	-8510
TlTe	-8511
:2.16	-8512
▁2.98	-8513
▁38.2	-8514
▁52.4	-8515
▁CrMn	-8516
▁CuHg	-8517
▁DySm	-8518
▁LaPd	-8519
0;45;4	-8520
2;2.03	-8521
2;43;3	-8522
3;2.68	-8523
4;2.01	-8524
4;2.05	-8525
5;2.59	-8526
6;2.65	-8527
8;2.44	-8528
9;2.67	-8529
9;2.84	-8530
▁122.0	-8531
▁122.1	-8532
▁125.6	-8533
▁130.5	-8534
▁137.3	-8535
▁137.8	-8536
▁140.6	-8537
▁145.9	-8538
▁15.20	-8539
▁15.55	-8540
▁15.93	-8541
▁165.4	-8542
1;2.42;	-8543
2;2.49;	-8544
2;30;30	-8545
2;34;32	-8546
:18;12;	-8547
1.47;1.4	-8548
1.93;1.7	-8549
2.16;2.4	-8550
2.37;2.0	-8551
2.38;2.0	-8552
3.04;2.8	-8553
:+3;+5;-	-8554
:-3;+4;+	-8555
:20;29;3	-8556
:32;44;3	-8557
2.20;2.20	-8558
2.79;2.80	-8559
:1.94;2.0	-8560
:36;37;36	-8561
2.11;2.10;	-8562
2;-2;-2;+6	-8563
3.24;3.25;	-8564
3.61;3.61;	-8565
:14;15;15;	-8566
9;2.89;2.89	-8567
:2.48;2.48;	-8568
:13;13;13;14	-8569
:2.86;2.86;2.8	-8570
:+3;+3;-3;-3;+3	-8571
PuY	-8572
2.49	-8573
TmTe	-8574
1.20;	-8575
▁25.2	-8576
▁26.1	-8577
▁CaNd	-8578
▁CuEr	-8579
0;2.55	-8580
1;2.63	-8581
2;1.95	-8582
2;30;2	-8583
3;2.66	-8584
4;2.41	-8585
4;2.58	-8586
4;2.61	-8587
5;2.56	-8588
5;55;4	-8589
8;2.82	-8590
▁125.8	-8591
▁139.5	-8592
▁151.1	-8593
▁155.5	-8594
▁165.9	-8595
0;2.43;	-8596
2;29;24	-8597
4;34;30	-8598
:14;10;	-8599
:23;26;	-8600
3.21;2.8	-8601
:24;28;2	-8602
:25;23;2	-8603
:28;27;2	-8604
:37;39;3	-8605
:41;42;4	-8606
:-1;+2;+2	-8607
:1.81;1.7	-8608
:1.85;1.7	-8609
:2.64;2.6	-8610
2.74;2.73;	-8611
5;1.55;1.5	-8612
:+3;+3;-1;+	-8613
:+4;+3;-2;+	-8614
:2.59;2.59;	-8615
1;+1;+1;-2;+	-8616
:+3;+1;-2;+5	-8617
:+5;+2;+1;-2	-8618
:14;21;14;17	-8619
:23;26;26;26	-8620
2.79;2.79;2.79	-8621
:+2;-2;-2;+5;+	-8622
:43;43;50;50;5	-8623
:18;18;18;15;18	-8624
:30;30;22;34;22	-8625
:3.10;3.10;3.10;	-8626
PS	-8627
ScB	-8628
ThN	-8629
1.69	-8630
2.44	-8631
9;50	-8632
IrPd	-8633
MgPd	-8634
PmZn	-8635
RhZn	-8636
TbZr	-8637
▁38.3	-8638
▁48.2	-8639
▁AcCe	-8640
▁DyPu	-8641
0;2.67	-8642
1;19;2	-8643
2;2.65	-8644
2;25;2	-8645
3;3.02	-8646
4;2.59	-8647
5;2.99	-8648
▁125.5	-8649
▁141.7	-8650
▁142.8	-8651
▁158.0	-8652
▁16.56	-8653
▁16.58	-8654
▁16.66	-8655
▁16.92	-8656
▁16.95	-8657
0;2.81;	-8658
1;2.43;	-8659
1;41;41	-8660
2;20;20	-8661
7;2.52;	-8662
8;38;40	-8663
8;40;38	-8664
9;2.89;	-8665
19;18;18	-8666
3.01;2.8	-8667
:-4;+1;+	-8668
:30;31;2	-8669
:42;39;3	-8670
1.55;1.52	-8671
0;40;40;40	-8672
2.69;2.69;	-8673
3.15;3.13;	-8674
3.26;3.25;	-8675
3.69;3.69;	-8676
:14;18;16;	-8677
1;2.81;2.81	-8678
:+2;-4;-4;+	-8679
:+4;+2;+2;+	-8680
:+5;+2;-2;+	-8681
:-1;+1;-2;+	-8682
:2.22;2.22;	-8683
:2.38;1.77;	-8684
:2.42;2.42;	-8685
:-1;+3;+1;+1	-8686
:14;13;12;13	-8687
:20;20;26;26	-8688
:18;18;22;18;18	-8689
UY	-8690
CSi	-8691
FGe	-8692
GeO	-8693
PtH	-8694
2.40	-8695
2.45	-8696
:0.8	-8697
ErIn	-8698
NdSr	-8699
ZnSe	-8700
▁218	-8701
▁Aea	-8702
1.40;	-8703
26;21	-8704
:31;4	-8705
▁42.2	-8706
▁CoEr	-8707
▁CuIr	-8708
▁DyRh	-8709
0;2.01	-8710
0;2.78	-8711
13;16;	-8712
1;2.43	-8713
2;1.90	-8714
2;2.64	-8715
3;2.01	-8716
4;1.77	-8717
4;2.68	-8718
5;2.60	-8719
6;2.05	-8720
6;3.00	-8721
▁138.8	-8722
▁140.0	-8723
▁15.36	-8724
▁15.68	-8725
▁151.2	-8726
▁16.47	-8727
0;41;44	-8728
1;+4;+4	-8729
4;22;28	-8730
6;46;44	-8731
14;14;15	-8732
2.31;1.7	-8733
2.56;2.6	-8734
26;26;23	-8735
3.05;2.8	-8736
3.29;2.4	-8737
:20;25;2	-8738
:31;29;3	-8739
:32;31;2	-8740
:36;39;3	-8741
:40;41;3	-8742
:40;42;4	-8743
:52;52;5	-8744
1.64;1.62	-8745
1.94;1.94	-8746
2.68;2.68	-8747
2.78;2.76	-8748
:2.15;2.1	-8749
2.38;2.39;	-8750
2.42;2.42;	-8751
2;+2;-2;+4	-8752
3.16;3.14;	-8753
3;+1;-2;-2	-8754
:18;19;19;	-8755
:22;22;34;3	-8756
:3.17;3.19;	-8757
:40;40;40;4	-8758
:46;44;46;4	-8759
:+2;-1;+2;+2	-8760
:-1;+3;-1;+3	-8761
:14;14;17;17	-8762
:14;18;14;14	-8763
:18;18;22;18	-8764
1;-2;+4;+3;+3	-8765
:+3;+2;-2;-2;+3	-8766
:-1;+2;+1;+3;+2	-8767
LaY	-8768
PrP	-8769
YZr	-8770
3;25	-8771
7;21	-8772
CeDy	-8773
LaNa	-8774
MnSr	-8775
RhSr	-8776
TiZr	-8777
▁130	-8778
▁KRb	-8779
17;21	-8780
1;20;	-8781
▁43.1	-8782
▁48.0	-8783
▁AuCu	-8784
▁CeGa	-8785
▁CeSm	-8786
1;1.93	-8787
1;2.03	-8788
2;1.71	-8789
2;3.04	-8790
3;2.55	-8791
3;3.00	-8792
4;2.03	-8793
4;2.66	-8794
4;3.05	-8795
5;+5;-	-8796
5;2.02	-8797
5;2.61	-8798
5;3.01	-8799
6;+6;-	-8800
8;1.77	-8801
8;2.02	-8802
8;2.45	-8803
8;2.61	-8804
8;40;4	-8805
9;2.02	-8806
9;2.96	-8807
9;26;3	-8808
:26;8;	-8809
▁14.45	-8810
▁145.7	-8811
▁15.87	-8812
▁151.6	-8813
▁16.30	-8814
▁16.62	-8815
▁16.89	-8816
▁162.1	-8817
▁165.6	-8818
1;+3;+3	-8819
1;2.35;	-8820
2;-3;-2	-8821
2;20;22	-8822
4;24;25	-8823
1.91;2.0	-8824
2.32;2.5	-8825
2.34;2.0	-8826
2.68;2.5	-8827
2.88;2.9	-8828
2.91;2.6	-8829
3.24;2.8	-8830
3.31;3.0	-8831
:20;28;2	-8832
:21;26;2	-8833
:26;16;2	-8834
:36;36;4	-8835
:38;33;3	-8836
3.12;3.13	-8837
3.15;3.14	-8838
:2.19;2.0	-8839
:2.22;2.0	-8840
1.96;1.98;	-8841
1;+1;+1;+2	-8842
1;-1;-1;+1	-8843
2.38;2.35;	-8844
2.66;2.66;	-8845
3.08;3.07;	-8846
3.59;3.59;	-8847
8;42;42;38	-8848
:38;38;36;3	-8849
:+2;+1;-2;+5	-8850
:+3;+2;-2;+3	-8851
:+3;-3;-3;+3	-8852
1;-2;-2;+3;+3	-8853
3.14;3.14;3.14	-8854
:2.44;2.44;2.4	-8855
:2.98;2.98;2.9	-8856
:+1;-2;+5;+3;+4	-8857
:+2;+2;-2;-2;+2	-8858
:+3;+3;+2;-2;-2	-8859
:+3;-3;-3;+3;+3	-8860
:34;34;30;35;26	-8861
cd	-8862
9;7	-8863
NpO	-8864
TlS	-8865
3;53	-8866
PuTm	-8867
▁199	-8868
▁217	-8869
13;11	-8870
3.93;	-8871
▁42.4	-8872
▁CaPd	-8873
▁CoDy	-8874
▁ErTb	-8875
0;2.69	-8876
0;2.77	-8877
17;20;	-8878
1;1.71	-8879
1;1.92	-8880
1;2.69	-8881
1;31;2	-8882
3;1.62	-8883
3;1.71	-8884
4;2.45	-8885
4;2.49	-8886
5;2.63	-8887
5;2.76	-8888
:1.05;	-8889
:12;6;	-8890
▁123.1	-8891
▁132.8	-8892
▁137.0	-8893
▁15.50	-8894
▁150.9	-8895
▁155.4	-8896
▁16.38	-8897
0;2.49;	-8898
1;2.51;	-8899
4;26;24	-8900
2.19;2.4	-8901
2.70;2.0	-8902
:-3;-2;+	-8903
:40;39;3	-8904
1.03;1.03	-8905
1.96;1.95	-8906
1.97;1.96	-8907
3;+3;+3;+	-8908
4;+1;+1;+	-8909
:+2;-1;+1	-8910
2.13;2.13;	-8911
2.33;2.35;	-8912
2;+1;-2;+4	-8913
2;22;26;26	-8914
3.18;3.17;	-8915
4;+4;+3;+3	-8916
7;2.07;2.0	-8917
7;2.56;2.5	-8918
:+2;+5;-2;+	-8919
:2.23;2.23;	-8920
:2.67;2.67;	-8921
:40;40;40;3	-8922
:2.83;2.83;2.8	-8923
:3.16;3.16;3.16;	-8924
MgO	-8925
ncc	-8926
6;29	-8927
FeMn	-8928
NbTi	-8929
PmRh	-8930
PrPt	-8931
▁FeK	-8932
1.63;	-8933
▁29.1	-8934
▁42.3	-8935
▁42.9	-8936
▁48.1	-8937
▁AcCu	-8938
▁AlMn	-8939
▁CaMn	-8940
▁CoCr	-8941
▁FeMg	-8942
0;2.63	-8943
16;14;	-8944
1;2.78	-8945
2;1.77	-8946
5;1.71	-8947
5;1.72	-8948
6;2.47	-8949
6;3.05	-8950
6;41;4	-8951
8;1.72	-8952
8;2.53	-8953
▁122.6	-8954
▁124.4	-8955
▁130.6	-8956
▁138.3	-8957
▁15.82	-8958
▁15.85	-8959
▁151.9	-8960
▁16.96	-8961
▁162.3	-8962
0;30;30	-8963
1;2.73;	-8964
2;23;23	-8965
3;43;44	-8966
0.99;2.8	-8967
16;15;16	-8968
16;18;16	-8969
18;19;19	-8970
2.10;2.5	-8971
26;26;30	-8972
3.11;2.8	-8973
:31;33;3	-8974
2;39;39;3	-8975
4;-2;-2;+	-8976
:2.23;2.0	-8977
2.16;2.16;	-8978
26;26;26;2	-8979
3;+3;+2;+2	-8980
5;2.84;2.8	-8981
8;2.98;2.9	-8982
:2.30;2.30;	-8983
:38;42;38;3	-8984
:46;44;44;4	-8985
:+1;+2;-2;+4	-8986
:+3;+3;+1;-2	-8987
3.11;3.11;3.11	-8988
:+2;+2;+2;+3;+	-8989
:+3;+3;+1;+1;+	-8990
:-1;+1;+3;+3;+	-8991
:56	-8992
1.67	-8993
6;48	-8994
IrSc	-8995
LaTh	-8996
1.48;	-8997
1;1.87	-8998
4;2.62	-8999
6;2.44	-9000
6;2.60	-9001
7;2.02	-9002
7;42;4	-9003
▁140.9	-9004
▁143.5	-9005
▁145.8	-9006
▁156.0	-9007
▁159.2	-9008
▁16.79	-9009
▁166.3	-9010
0;2.38;	-9011
0;2.42;	-9012
0;32;32	-9013
18;20;20	-9014
2.30;2.5	-9015
2.53;2.4	-9016
26;26;25	-9017
3.20;2.8	-9018
:+3;-2;-	-9019
:22;25;2	-9020
:35;26;3	-9021
:39;34;3	-9022
:40;38;4	-9023
3.30;3.30	-9024
4;-4;-4;+	-9025
:-1;+2;+4	-9026
:2.15;2.0	-9027
2.43;2.43;	-9028
2.72;2.73;	-9029
2.86;2.86;	-9030
2;34;34;30	-9031
3;2.53;2.5	-9032
:18;18;20;	-9033
0;2.90;2.90	-9034
1;2.91;2.91	-9035
4;2.84;2.84	-9036
:+2;+2;-3;-	-9037
:2.32;2.32;	-9038
:24;22;22;2	-9039
:3.16;3.17;	-9040
:44;42;42;3	-9041
:17;14;16;16	-9042
:18;18;18;22	-9043
0;34;34;30;22	-9044
2;-2;-2;+4;+4	-9045
:+2;+1;-2;-2;+	-9046
:+2;+2;+1;+1;+	-9047
54	-9048
nm	-9049
0.00	-9050
6;+5	-9051
6;28	-9052
8;52	-9053
InRh	-9054
OsRh	-9055
ReSc	-9056
▁114	-9057
8;25;	-9058
▁26.4	-9059
▁AgHg	-9060
▁CrCs	-9061
▁ErPu	-9062
▁HoTb	-9063
▁PmPr	-9064
1;2.08	-9065
2;1.73	-9066
2;2.67	-9067
5;2.79	-9068
8;1.73	-9069
8;2.66	-9070
9;2.48	-9071
9;3.01	-9072
▁122.5	-9073
▁130.2	-9074
▁130.4	-9075
▁15.54	-9076
▁15.80	-9077
▁15.95	-9078
▁16.41	-9079
▁16.55	-9080
▁16.71	-9081
▁162.8	-9082
0;20;23	-9083
0;22;20	-9084
1;2.36;	-9085
:21;18;	-9086
:22;18;	-9087
15;14;14	-9088
2.56;2.4	-9089
3.27;2.8	-9090
:37;41;3	-9091
:38;36;4	-9092
:44;38;4	-9093
2.67;2.67	-9094
2;26;26;2	-9095
:1.82;1.7	-9096
:16;18;17;	-9097
:+5;+3;+2;+	-9098
:2.40;2.40;	-9099
:3.15;3.14;	-9100
:3.29;3.29;	-9101
:32;32;32;3	-9102
:34;36;36;3	-9103
:38;32;32;3	-9104
:20;20;20;26	-9105
3.12;3.12;3.12	-9106
:1.51;1.51;1.5	-9107
:+2;+3;-2;-2;+3	-9108
:18;14;14;14;14	-9109
:44;44;42;44;44	-9110
:3.24;3.24;3.24;	-9111
NpP	-9112
0;54	-9113
8;56	-9114
NpRh	-9115
TiZn	-9116
1.51;	-9117
10;11	-9118
11;13	-9119
3.99;	-9120
4.07;	-9121
▁2.95	-9122
▁25.1	-9123
▁26.3	-9124
▁30.3	-9125
▁51.6	-9126
▁CaRh	-9127
▁Cmme	-9128
▁CoCs	-9129
▁CoLi	-9130
▁HfIr	-9131
▁HoPr	-9132
0;27;3	-9133
2;1.93	-9134
2;1.96	-9135
4;2.60	-9136
6;2.64	-9137
6;3.01	-9138
6;35;3	-9139
7;2.43	-9140
7;2.44	-9141
7;2.69	-9142
9;2.83	-9143
▁152.0	-9144
1;2.44;	-9145
2;46;46	-9146
4;2.54;	-9147
4;34;36	-9148
7;2.04;	-9149
:17;12;	-9150
:23;16;	-9151
1.61;1.6	-9152
1.75;2.0	-9153
1.86;1.7	-9154
1.92;1.7	-9155
15;14;16	-9156
16;16;17	-9157
2.58;2.4	-9158
:24;24;3	-9159
:32;33;2	-9160
:33;29;3	-9161
3.07;3.06	-9162
3.19;3.18	-9163
:-1;+2;+1	-9164
:2.69;2.6	-9165
:2.79;2.8	-9166
0;20;26;26	-9167
0;50;50;50	-9168
2.29;2.30;	-9169
2.76;2.74;	-9170
:17;17;16;	-9171
:+2;-1;+1;+	-9172
:2.21;2.21;	-9173
:2.46;2.46;	-9174
:+3;+3;-2;+2	-9175
:+3;-1;-1;+3	-9176
:-1;+2;+3;+1	-9177
2.95;2.95;2.9	-9178
:+2;+4;-2;-2;+	-9179
:+3;+3;+3;+2;+	-9180
:+2;+3;+3;-2;+4	-9181
3;7	-9182
9;8	-9183
SrB	-9184
2;48	-9185
3;48	-9186
8;49	-9187
DyLa	-9188
GaMg	-9189
MgNd	-9190
NbRh	-9191
PuRu	-9192
RbSn	-9193
▁23.2	-9194
▁38.5	-9195
▁45.5	-9196
▁50.8	-9197
▁AgAl	-9198
▁CeHg	-9199
0;25;2	-9200
2;51;5	-9201
3;2.79	-9202
4;2.42	-9203
4;2.67	-9204
4;3.02	-9205
5;3.00	-9206
5;41;4	-9207
6;2.50	-9208
7;2.06	-9209
7;2.63	-9210
8;2.43	-9211
9;50;4	-9212
▁133.7	-9213
▁134.0	-9214
▁140.8	-9215
▁145.4	-9216
▁15.42	-9217
▁15.88	-9218
▁15.89	-9219
▁151.7	-9220
▁156.4	-9221
▁158.4	-9222
▁16.07	-9223
▁16.23	-9224
▁16.44	-9225
▁16.68	-9226
▁17.10	-9227
▁18.51	-9228
0;20;24	-9229
2;32;34	-9230
5;34;34	-9231
7;2.40;	-9232
7;2.87;	-9233
7;44;44	-9234
16;14;14	-9235
18;18;24	-9236
2.30;2.8	-9237
2.71;2.0	-9238
2.72;2.0	-9239
3.09;2.8	-9240
:+5;+3;-	-9241
:24;21;2	-9242
:34;32;3	-9243
:34;39;3	-9244
:47;46;4	-9245
:2.93;2.9	-9246
2.30;2.34;	-9247
2.37;2.35;	-9248
2.72;2.71;	-9249
2.89;2.89;	-9250
4;1.55;1.5	-9251
:18;14;14;	-9252
:2.38;2.37;	-9253
:22;30;30;2	-9254
:3.06;3.06;	-9255
:34;30;30;3	-9256
:47;47;47;4	-9257
:14;13;13;14	-9258
2.76;2.76;2.8	-9259
:2.62;2.62;2.6	-9260
:2.80;2.80;2.8	-9261
:+2;+3;+3;-2;-2	-9262
:29;22;34;34;22	-9263
43	-9264
FeO	-9265
TmS	-9266
9;22	-9267
ErNd	-9268
ErTb	-9269
MnRu	-9270
PrSn	-9271
PuTb	-9272
RbCl	-9273
1.66;	-9274
9;1.4	-9275
:50;3	-9276
▁37.9	-9277
▁38.1	-9278
▁42.7	-9279
▁AgCd	-9280
▁AlLi	-9281
▁CaNa	-9282
▁CeRh	-9283
▁FeHf	-9284
▁HoLi	-9285
▁PdPt	-9286
▁Pnna	-9287
19;17;	-9288
5;2.57	-9289
6;1.77	-9290
6;2.48	-9291
▁122.8	-9292
▁125.7	-9293
▁129.3	-9294
▁129.8	-9295
▁133.3	-9296
▁140.7	-9297
▁141.3	-9298
▁15.92	-9299
▁150.8	-9300
▁156.2	-9301
▁16.63	-9302
▁16.72	-9303
▁16.98	-9304
▁162.9	-9305
0;34;30	-9306
2;22;28	-9307
2;31;31	-9308
4;2.45;	-9309
4;43;44	-9310
6;2.46;	-9311
7;2.42;	-9312
7;2.86;	-9313
2.14;2.1	-9314
2.30;2.9	-9315
2.57;2.6	-9316
26;29;30	-9317
3.30;2.8	-9318
:+5;+5;-	-9319
:31;26;2	-9320
:39;41;3	-9321
:41;40;3	-9322
:43;44;4	-9323
:44;39;4	-9324
0;44;44;4	-9325
:+1;-2;+3	-9326
:1.74;2.0	-9327
2.77;2.79;	-9328
3.19;3.16;	-9329
3.20;3.18;	-9330
3.23;3.22;	-9331
3.27;3.28;	-9332
3;+3;+3;-2	-9333
4;24;26;26	-9334
:-2;-2;+5;+	-9335
:2.35;2.34;	-9336
:2.45;2.45;	-9337
:2.68;2.68;	-9338
:2.87;2.87;	-9339
:32;32;31;3	-9340
:-3;+2;+1;+2	-9341
:26;16;23;18	-9342
:2.99;2.99;2.9	-9343
:-1;+3;-2;+4;+3	-9344
RuY	-9345
ThS	-9346
5;43	-9347
CaCe	-9348
HoNi	-9349
HoPm	-9350
LaLi	-9351
NpPd	-9352
RbBr	-9353
1.61;	-9354
1.70;	-9355
:+6;-	-9356
▁40.7	-9357
▁42.5	-9358
▁42.6	-9359
▁46.0	-9360
▁47.6	-9361
▁BaCe	-9362
▁DyLi	-9363
▁DyTb	-9364
▁MgNi	-9365
▁MnRh	-9366
0;1.91	-9367
0;2.65	-9368
1;2.04	-9369
1;2.67	-9370
2;37;4	-9371
3;3.07	-9372
4;2.06	-9373
4;2.69	-9374
6;1.72	-9375
6;2.59	-9376
7;1.72	-9377
8;2.08	-9378
8;2.63	-9379
8;31;2	-9380
9;2.54	-9381
9;2.64	-9382
9;26;2	-9383
▁122.4	-9384
▁123.7	-9385
▁132.9	-9386
▁134.1	-9387
▁139.0	-9388
▁139.2	-9389
▁141.6	-9390
▁142.7	-9391
▁153.6	-9392
▁153.7	-9393
▁153.8	-9394
▁157.6	-9395
▁16.02	-9396
▁16.32	-9397
▁16.52	-9398
▁16.97	-9399
▁17.03	-9400
0;2.46;	-9401
1;+2;-2	-9402
1;+4;+3	-9403
1;2.61;	-9404
2;22;23	-9405
2;29;28	-9406
2;34;36	-9407
4;2.38;	-9408
5;36;34	-9409
7;2.06;	-9410
8;36;36	-9411
:17;21;	-9412
:26;25;	-9413
1.73;2.5	-9414
1.97;1.7	-9415
2.35;2.8	-9416
2.83;2.9	-9417
20;18;18	-9418
:36;32;3	-9419
2.65;2.65	-9420
:1.72;2.0	-9421
:20;14;14	-9422
2.24;2.26;	-9423
2.39;2.36;	-9424
2.46;2.46;	-9425
2.88;2.88;	-9426
2;+2;+2;+3	-9427
2;+2;+4;+4	-9428
3;1.64;1.6	-9429
:17;14;16;	-9430
:+1;+2;+1;+	-9431
:+2;+4;+2;+	-9432
:2.41;2.41;	-9433
:2.64;2.64;	-9434
:3.17;3.16;	-9435
:+3;+2;+1;-2	-9436
:18;20;18;18;	-9437
:+4;+1;+1;+1;+	-9438
:22;30;34;34;22	-9439
4;48	-9440
4;64	-9441
NdPd	-9442
PmPu	-9443
RhSm	-9444
SrTl	-9445
1.65;	-9446
:74;7	-9447
▁30.1	-9448
▁42.8	-9449
▁50.5	-9450
▁AcLa	-9451
▁AlDy	-9452
▁CaGa	-9453
▁CaIr	-9454
▁LiMn	-9455
0;1.92	-9456
1;1.95	-9457
1;2.77	-9458
2;2.68	-9459
4;3.07	-9460
6;2.61	-9461
7;3.00	-9462
8;1.90	-9463
9;2.81	-9464
▁126.1	-9465
▁128.2	-9466
▁136.8	-9467
▁141.0	-9468
▁15.30	-9469
▁16.17	-9470
▁16.22	-9471
▁16.93	-9472
▁160.0	-9473
1;1.91;	-9474
3;-3;+3	-9475
3;1.77;	-9476
4;2.42;	-9477
4;28;28	-9478
4;74;74	-9479
7;36;37	-9480
8;34;22	-9481
1.89;2.0	-9482
2.32;2.8	-9483
26;23;18	-9484
3.33;2.8	-9485
:+1;-1;-	-9486
:+5;+2;-	-9487
:21;23;2	-9488
:34;40;3	-9489
2.77;2.78	-9490
3.10;3.09	-9491
:+2;-1;+2	-9492
:1.38;2.0	-9493
:2.20;2.0	-9494
2.12;2.12;	-9495
2.21;2.20;	-9496
2;+2;+2;-2	-9497
3.13;3.12;	-9498
:3.16;3.14;	-9499
:3.48;3.48;	-9500
:38;38;34;3	-9501
:-1;+3;+2;+1	-9502
:14;13;14;13	-9503
2;+2;+2;+2;+2	-9504
:18;18;18;22;	-9505
3.09;3.09;3.09	-9506
:2.93;2.92;2.9	-9507
:18;16;16;18;17	-9508
:18;18;18;18;15	-9509
GeH	-9510
KTl	-9511
1.63	-9512
1.74	-9513
3;-1	-9514
NdTh	-9515
26;30	-9516
:18;3	-9517
▁16.3	-9518
▁37.8	-9519
▁46.6	-9520
▁CeNp	-9521
▁CuPd	-9522
▁HoPt	-9523
▁InRh	-9524
0;31;2	-9525
11;11;	-9526
1;1.72	-9527
5;3.06	-9528
6;2.58	-9529
6;39;4	-9530
7;2.00	-9531
7;2.08	-9532
7;28;2	-9533
9;1.77	-9534
▁144.9	-9535
▁156.7	-9536
▁16.00	-9537
▁16.04	-9538
▁16.09	-9539
▁16.60	-9540
▁18.12	-9541
0;26;18	-9542
2;-2;-1	-9543
2;2.79;	-9544
2;26;35	-9545
2;29;22	-9546
3;2.02;	-9547
6;1.80;	-9548
7;2.07;	-9549
15;15;12	-9550
17;17;16	-9551
2.28;2.2	-9552
2.46;2.5	-9553
2.72;2.4	-9554
2.80;2.6	-9555
3.31;2.9	-9556
:35;40;3	-9557
3.13;3.12	-9558
:1.72;2.4	-9559
:1.75;2.0	-9560
:2.04;2.0	-9561
1.97;1.96;	-9562
2.19;2.18;	-9563
3.11;3.09;	-9564
3.24;3.26;	-9565
5;2.55;2.5	-9566
5;2.86;2.8	-9567
8;2.48;2.4	-9568
6;2.86;2.86	-9569
:+1;-1;+1;+	-9570
:+3;+3;+2;-	-9571
:-1;-1;+2;+	-9572
:2.52;2.52;	-9573
:2.58;2.58;	-9574
:2.85;2.85;	-9575
:2.91;2.91;	-9576
:38;42;42;4	-9577
:-1;+1;-2;+3	-9578
:+2;+2;+4;+1;+	-9579
:+2;-1;-1;-1;+	-9580
:-1;+3;+1;+1;+	-9581
:2.61;2.61;2.6	-9582
:2.82;2.82;2.8	-9583
:2.84;2.84;2.8	-9584
:2.88;2.88;2.9	-9585
6;56;56;56;56;56	-9586
:3.26;3.26;3.26;	-9587
6_2	-9588
PuN	-9589
RbP	-9590
SmN	-9591
▁75	-9592
1.03	-9593
1.27	-9594
3;46	-9595
4;47	-9596
6;47	-9597
9;24	-9598
9;27	-9599
CeIn	-9600
MnAs	-9601
SmZr	-9602
▁142	-9603
▁171	-9604
▁CoK	-9605
3;2.1	-9606
▁2.96	-9607
▁23.3	-9608
▁AlEr	-9609
▁BiCs	-9610
▁CaCr	-9611
▁CeMn	-9612
▁CuNi	-9613
▁DyPr	-9614
▁ErMn	-9615
▁ErSm	-9616
▁InNa	-9617
▁MgMn	-9618
0;1.94	-9619
0;3.03	-9620
0;3.04	-9621
0;32;2	-9622
0;51;5	-9623
1;2.07	-9624
2;1.88	-9625
3;3.04	-9626
3;35;3	-9627
4;2.40	-9628
5;2.00	-9629
5;2.01	-9630
5;44;3	-9631
6;36;4	-9632
7;2.05	-9633
7;2.41	-9634
8;2.80	-9635
9;2.08	-9636
▁132.5	-9637
▁137.2	-9638
▁140.2	-9639
▁141.8	-9640
▁145.2	-9641
▁16.19	-9642
▁16.34	-9643
▁16.45	-9644
▁16.57	-9645
▁16.64	-9646
▁16.76	-9647
▁171.0	-9648
0;24;20	-9649
18;23;2	-9650
1;2.37;	-9651
1;2.39;	-9652
4;+2;+4	-9653
4;22;30	-9654
4;50;44	-9655
5;36;36	-9656
7;1.77;	-9657
7;2.44;	-9658
8;2.57;	-9659
8;37;38	-9660
9;2.09;	-9661
1.70;1.6	-9662
1.76;2.0	-9663
1.90;1.7	-9664
26;29;32	-9665
:+2;+5;-	-9666
:26;44;4	-9667
:29;28;3	-9668
:30;27;2	-9669
:34;37;3	-9670
:35;29;3	-9671
:42;40;3	-9672
:42;50;4	-9673
2;33;33;3	-9674
3.54;3.54	-9675
1.95;1.94;	-9676
2.28;2.27;	-9677
2.47;2.47;	-9678
2.85;2.85;	-9679
3.06;3.06;	-9680
3.22;3.21;	-9681
3.28;3.29;	-9682
3;+1;-2;+2	-9683
:+3;+2;-1;+	-9684
:20;22;26;2	-9685
:3.31;3.31;	-9686
:42;44;44;4	-9687
:+1;-2;+5;+3	-9688
:+3;-1;+1;+2	-9689
2.43;2.43;2.4	-9690
2.93;2.93;2.9	-9691
:2.74;2.74;2.9	-9692
:+2;+2;-2;+5;+3	-9693
:28;22;34;34;22	-9694
US	-9695
4_2	-9696
:44	-9697
MgH	-9698
PmH	-9699
RhY	-9700
TlY	-9701
1.40	-9702
3;16	-9703
4;21	-9704
4;31	-9705
DyIn	-9706
DyNd	-9707
GeSi	-9708
HoPr	-9709
PaAs	-9710
PrPu	-9711
ScSm	-9712
ScTi	-9713
SrSb	-9714
1.32;	-9715
12;10	-9716
12;20	-9717
:41;5	-9718
▁2.93	-9719
▁20.3	-9720
▁40.9	-9721
▁AcCd	-9722
▁BaBi	-9723
▁CdCu	-9724
▁CoHo	-9725
▁CoIr	-9726
▁FeNi	-9727
▁LaSm	-9728
▁NiRh	-9729
1;2.66	-9730
1;3.04	-9731
2;1.62	-9732
2;3.07	-9733
3;41;3	-9734
4;2.07	-9735
5;2.03	-9736
5;2.68	-9737
6;3.07	-9738
6;38;3	-9739
9;2.66	-9740
:26;26	-9741
▁123.3	-9742
▁127.0	-9743
▁133.0	-9744
▁139.7	-9745
▁140.1	-9746
▁143.6	-9747
▁145.5	-9748
▁15.91	-9749
▁16.10	-9750
▁16.26	-9751
▁16.73	-9752
0;2.48;	-9753
0;26;26	-9754
1;2.45;	-9755
1;2.48;	-9756
3;2.53;	-9757
3;2.80;	-9758
5;+4;+4	-9759
7;2.53;	-9760
8;41;44	-9761
8;42;38	-9762
:10;10;	-9763
1.73;1.6	-9764
1.78;1.6	-9765
15;17;17	-9766
18;18;22	-9767
2.15;2.1	-9768
2.59;2.4	-9769
2.68;2.8	-9770
3.07;2.6	-9771
:+1;+5;-	-9772
:18;22;2	-9773
:41;39;3	-9774
:46;47;4	-9775
:48;49;5	-9776
0.99;0.99	-9777
2.70;2.69	-9778
3.17;3.19	-9779
:+1;+3;-2	-9780
:1.71;1.2	-9781
:2.24;2.2	-9782
:2.94;2.9	-9783
2.28;2.29;	-9784
2.71;2.73;	-9785
2;-2;+4;+4	-9786
2;26;26;26	-9787
3.24;3.23;	-9788
4;28;22;22	-9789
9;29;32;32	-9790
:13;14;14;	-9791
:20;18;20;	-9792
:-1;-1;+4;+	-9793
:-2;-3;+2;+	-9794
:2.88;2.88;	-9795
:2.98;2.98;	-9796
:3.13;3.14;	-9797
:3.20;3.19;	-9798
:3.51;3.51;	-9799
:36;34;34;3	-9800
:41;41;41;4	-9801
:44;44;45;4	-9802
:+2;-1;-1;+3	-9803
:+3;+4;+1;-2	-9804
:+5;+1;+3;-2	-9805
:18;18;18;17	-9806
:20;20;22;22	-9807
2.75;2.75;2.8	-9808
:12;20;14;14;	-9809
:+2;+1;+1;+1;+	-9810
:2.40;2.40;2.4	-9811
:2.60;2.60;2.6	-9812
:43;43;50;50;4	-9813
:+2;-2;-2;+2;+2	-9814
0;34;34;30;22;22	-9815
:3.28;3.28;3.28;	-9816
:27	-9817
SrY	-9818
acd	-9819
▁85	-9820
0;48	-9821
1.68	-9822
9;35	-9823
FeNi	-9824
PmTh	-9825
1.16;	-9826
▁47.1	-9827
▁47.8	-9828
▁48.3	-9829
▁AcBi	-9830
▁BaGa	-9831
▁BaMn	-9832
▁BaPd	-9833
▁CrLi	-9834
▁DyPt	-9835
▁InLi	-9836
▁NdPt	-9837
15;18;	-9838
1;1.77	-9839
2;1.74	-9840
2;2.07	-9841
3;1.98	-9842
4;1.71	-9843
6;1.54	-9844
7;2.42	-9845
9;2.63	-9846
9;3.05	-9847
▁124.3	-9848
▁129.0	-9849
▁134.8	-9850
▁139.4	-9851
▁142.6	-9852
▁15.86	-9853
▁151.0	-9854
▁16.48	-9855
▁17.04	-9856
0;1.96;	-9857
0;2.47;	-9858
0;2.90;	-9859
2;35;35	-9860
4;2.40;	-9861
7;2.57;	-9862
7;37;38	-9863
14;17;17	-9864
2.55;2.4	-9865
2.69;2.5	-9866
:16;18;2	-9867
:22;32;3	-9868
:29;28;2	-9869
:30;28;2	-9870
:32;30;2	-9871
:40;40;4	-9872
:40;43;4	-9873
:42;45;4	-9874
1.93;1.93	-9875
2.75;2.76	-9876
2.78;2.79	-9877
7;37;37;3	-9878
:-1;+1;+3	-9879
:-1;+3;+4	-9880
:-1;+4;+3	-9881
:1.95;2.0	-9882
2.25;2.24;	-9883
2.31;2.34;	-9884
2.77;2.74;	-9885
2.79;2.80;	-9886
3.21;3.18;	-9887
3.21;3.19;	-9888
3.67;3.67;	-9889
3;+2;+3;+3	-9890
3;+3;-2;+3	-9891
4;2.06;2.0	-9892
4;2.54;2.5	-9893
:16;18;16;	-9894
:+3;+4;+4;+	-9895
:2.09;2.09;	-9896
:2.54;2.54;	-9897
:2.55;2.55;	-9898
:2.61;2.61;	-9899
:38;32;38;3	-9900
:+3;+3;+2;-2	-9901
2.65;2.65;2.6	-9902
:+1;+3;-2;-2;+	-9903
2.36;2.36;2.36;	-9904
:2.34;2.34;2.34;	-9905
TmU	-9906
5;47	-9907
CeEr	-9908
PbRh	-9909
RbZn	-9910
RhTb	-9911
SrTb	-9912
▁152	-9913
1.15;	-9914
15;19	-9915
4;17;	-9916
:1.81	-9917
:1.84	-9918
▁2.84	-9919
▁2.94	-9920
▁45.7	-9921
▁AcAl	-9922
▁CdLa	-9923
▁ErLi	-9924
▁FeIn	-9925
▁GaMn	-9926
0;1.80	-9927
0;3.07	-9928
4;1.87	-9929
4;2.08	-9930
4;38;3	-9931
6;1.63	-9932
6;3.03	-9933
7;1.66	-9934
7;2.04	-9935
7;2.09	-9936
8;2.65	-9937
9;1.89	-9938
▁130.9	-9939
▁138.9	-9940
▁141.4	-9941
▁144.0	-9942
▁145.1	-9943
▁15.94	-9944
▁155.3	-9945
▁156.3	-9946
▁16.12	-9947
▁16.25	-9948
▁16.50	-9949
▁16.87	-9950
0;2.02;	-9951
0;2.45;	-9952
0;35;38	-9953
2;2.50;	-9954
2;34;38	-9955
4;-2;+1	-9956
5;+5;+4	-9957
5;2.53;	-9958
6;2.66;	-9959
6;36;37	-9960
8;2.68;	-9961
:18;26;	-9962
:19;21;	-9963
:22;19;	-9964
2.87;2.9	-9965
3.30;2.9	-9966
:34;36;4	-9967
:36;31;3	-9968
:38;42;4	-9969
:43;43;3	-9970
:45;43;4	-9971
2.76;2.77	-9972
2.77;2.79	-9973
3.15;3.13	-9974
3.31;3.31	-9975
3.36;3.36	-9976
:1.80;1.7	-9977
:2.16;2.0	-9978
1.95;1.96;	-9979
1.99;2.00;	-9980
2.63;2.63;	-9981
2.75;2.73;	-9982
2.87;2.87;	-9983
3;+2;-2;-2	-9984
:14;14;13;	-9985
:17;16;18;	-9986
:18;18;17;	-9987
:18;18;24;	-9988
:28;8;15;2	-9989
3;2.83;2.83	-9990
:+3;+1;-1;+	-9991
:+4;+1;-2;+	-9992
:-1;-2;-2;+	-9993
:1.72;1.72;	-9994
:2.89;2.89;	-9995
:20;22;22;2	-9996
:3.30;3.30;	-9997
:+2;+1;-3;+2	-9998
:+3;+3;-2;+4	-9999
:-1;-1;+3;+2	-10000
:13;14;13;14	-10001
2.42;2.42;2.4	-10002
3.09;3.09;3.09;	-10003
:12;20;14;14;16	-10004
:16;16;18;17;18	-10005
:22;30;30;22;34	-10006
:2.27;2.27;2.27;	-10007
MnF	-10008
PaP	-10009
PuB	-10010
STe	-10011
SnH	-10012
TcY	-10013
0;45	-10014
12;2	-10015
6;52	-10016
6;54	-10017
ErNa	-10018
ErTm	-10019
NpSi	-10020
ScAs	-10021
TbCl	-10022
14;20	-10023
7;2.2	-10024
:0.75	-10025
▁47.9	-10026
▁51.4	-10027
▁CaSr	-10028
▁CdHo	-10029
▁CePt	-10030
▁DyPm	-10031
▁ErGa	-10032
▁HoMn	-10033
▁HoSm	-10034
▁NpPa	-10035
1;3.06	-10036
3;1.66	-10037
3;1.90	-10038
4;1.95	-10039
4;2.00	-10040
4;2.79	-10041
5;1.73	-10042
5;3.02	-10043
6;1.80	-10044
7;1.63	-10045
9;2.45	-10046
:10;9;	-10047
▁122.7	-10048
▁122.9	-10049
▁124.1	-10050
▁130.1	-10051
▁144.7	-10052
▁15.97	-10053
▁155.2	-10054
▁157.4	-10055
▁157.9	-10056
▁16.33	-10057
▁16.40	-10058
▁16.65	-10059
▁164.9	-10060
▁166.0	-10061
▁170.8	-10062
1;2.47;	-10063
2;32;26	-10064
2;42;44	-10065
3;2.00;	-10066
3;2.46;	-10067
4;25;24	-10068
4;34;35	-10069
4;36;38	-10070
:12;18;	-10071
:18;13;	-10072
:24;19;	-10073
0.99;1.3	-10074
1.73;2.1	-10075
1.87;1.7	-10076
2.27;2.9	-10077
2.33;2.8	-10078
2.39;2.8	-10079
2.67;2.5	-10080
26;26;28	-10081
3.33;2.9	-10082
:22;26;3	-10083
:22;29;2	-10084
:27;27;2	-10085
:28;23;2	-10086
:30;23;2	-10087
3.08;3.09	-10088
3.11;3.12	-10089
3.14;3.13	-10090
2.15;2.14;	-10091
2.21;2.22;	-10092
3.23;3.25;	-10093
3.66;3.66;	-10094
:+4;+4;+1;+	-10095
:+5;-2;+1;+	-10096
:-1;+4;+1;+	-10097
:2.37;2.36;	-10098
:2.47;2.47;	-10099
:2.56;2.56;	-10100
:2.77;2.76;	-10101
:2.90;2.90;	-10102
:29;32;32;2	-10103
:38;36;36;3	-10104
:+2;-1;+1;+3	-10105
:13;14;13;13	-10106
:14;14;13;13	-10107
:17;16;16;14	-10108
4;24;24;21;21	-10109
:18;18;19;19;	-10110
:2.48;2.48;2.4	-10111
:2.90;2.89;2.9	-10112
:32;32;32;29;2	-10113
:3.19;3.19;3.19;	-10114
86	-10115
VB	-10116
PSe	-10117
1.58	-10118
13;8	-10119
3;27	-10120
4;62	-10121
5;48	-10122
8;23	-10123
MgZn	-10124
NiSi	-10125
PbPd	-10126
TlTm	-10127
▁KPt	-10128
1;1.3	-10129
5;0.9	-10130
:29;4	-10131
:70;7	-10132
▁2.81	-10133
▁2.92	-10134
▁26.2	-10135
▁39.2	-10136
▁47.5	-10137
▁49.1	-10138
▁AlAu	-10139
▁AuCs	-10140
▁CeLi	-10141
▁ErMg	-10142
▁HfHo	-10143
▁PaPu	-10144
▁PrRh	-10145
17;21;	-10146
1;2.09	-10147
1;3.02	-10148
2;2.76	-10149
3;1.97	-10150
3;1.99	-10151
3;2.78	-10152
3;37;3	-10153
4;46;5	-10154
5;1.66	-10155
5;2.06	-10156
6;2.57	-10157
6;38;4	-10158
9;2.65	-10159
▁123.4	-10160
▁126.0	-10161
▁129.4	-10162
▁139.6	-10163
▁142.5	-10164
▁153.1	-10165
▁155.1	-10166
▁16.01	-10167
▁16.03	-10168
▁16.27	-10169
▁16.43	-10170
▁16.77	-10171
▁16.99	-10172
▁162.0	-10173
▁17.92	-10174
0;2.44;	-10175
0;34;33	-10176
0;40;44	-10177
1;2.34;	-10178
1;2.78;	-10179
2;26;22	-10180
2;32;30	-10181
2;40;32	-10182
4;23;22	-10183
5;26;32	-10184
:19;14;	-10185
1.58;1.5	-10186
1.71;1.6	-10187
1.87;1.9	-10188
14;17;18	-10189
3.31;2.8	-10190
3.32;3.0	-10191
:24;19;2	-10192
:26;30;2	-10193
:31;36;3	-10194
:32;34;2	-10195
:39;41;4	-10196
:42;41;3	-10197
2.69;2.69	-10198
3.09;3.08	-10199
3.48;3.48	-10200
1.39;1.38;	-10201
2.32;2.35;	-10202
3.19;3.20;	-10203
3.64;3.64;	-10204
3;+1;+2;-2	-10205
6;1.54;1.5	-10206
9;2.08;2.0	-10207
9;2.49;2.4	-10208
:14;14;12;	-10209
:+3;+2;+3;-	-10210
:2.35;2.36;	-10211
:2.49;2.49;	-10212
:43;43;43;4	-10213
:+2;+2;+2;-4	-10214
:+5;+1;+2;-2	-10215
:-1;-1;+1;+2	-10216
:13;12;13;14	-10217
:20;22;22;20	-10218
1;+1;+1;+1;-2	-10219
3;-2;+3;+3;+3	-10220
:1.51;1.50;1.5	-10221
:42;42;42;42;3	-10222
2.38;2.38;2.38;	-10223
:+1;+2;-2;-2;+4	-10224
:+1;+3;-2;+5;+4	-10225
:-1;+1;+2;+3;+2	-10226
41	-10227
KB	-10228
:54	-10229
NaF	-10230
▁188	-10231
▁19.2	-10232
▁39.3	-10233
▁41.4	-10234
▁41.9	-10235
▁51.9	-10236
▁GaMg	-10237
▁HoPu	-10238
0;1.89	-10239
0;48;4	-10240
3;1.87	-10241
3;3.06	-10242
4;1.92	-10243
4;53;4	-10244
5;1.64	-10245
5;1.77	-10246
6;1.64	-10247
6;2.49	-10248
6;2.63	-10249
6;3.02	-10250
6;3.08	-10251
8;1.66	-10252
8;2.64	-10253
▁136.6	-10254
▁141.5	-10255
▁145.6	-10256
▁15.40	-10257
▁156.9	-10258
▁157.5	-10259
▁16.69	-10260
▁16.88	-10261
▁161.2	-10262
▁18.37	-10263
0;29;32	-10264
18;24;2	-10265
2;2.45;	-10266
2;2.53;	-10267
2;32;35	-10268
2;36;38	-10269
3;2.01;	-10270
3;44;44	-10271
4;2.80;	-10272
4;46;44	-10273
5;0.97;	-10274
5;2.46;	-10275
5;2.55;	-10276
7;36;36	-10277
7;46;46	-10278
:18;23;	-10279
1.94;1.7	-10280
1.95;1.7	-10281
14;16;14	-10282
2.10;2.1	-10283
2.82;2.6	-10284
2.94;2.5	-10285
:+3;+6;-	-10286
:-3;-1;+	-10287
:20;20;3	-10288
:23;25;2	-10289
:34;26;2	-10290
:38;32;3	-10291
1.54;1.53	-10292
1.98;1.97	-10293
1.99;1.98	-10294
2.27;2.26	-10295
2.64;2.64	-10296
2;38;37;3	-10297
:1.84;1.7	-10298
0;2.90;2.8	-10299
1.95;1.97;	-10300
1.95;1.99;	-10301
1;2.02;2.0	-10302
2.24;2.23;	-10303
2.32;2.38;	-10304
2.35;2.33;	-10305
3.22;3.20;	-10306
:16;16;17;	-10307
:26;23;26;	-10308
:+3;+2;+2;-	-10309
:1.93;1.93;	-10310
:2.19;2.19;	-10311
:2.65;2.65;	-10312
:2.92;2.92;	-10313
:26;22;22;2	-10314
:+2;+2;-2;-2	-10315
:+5;+1;-2;+4	-10316
:16;16;16;16	-10317
1.64;1.63;1.6	-10318
1;-2;+2;+2;+2	-10319
:26;26;26;22;26	-10320
:44;44;44;44;44	-10321
ErY	-10322
NdH	-10323
SrI	-10324
TlO	-10325
VSi	-10326
3;50	-10327
8;18	-10328
9;56	-10329
ErHg	-10330
FeNa	-10331
NiPr	-10332
NpAs	-10333
NpGe	-10334
PmSb	-10335
SrBr	-10336
SrTh	-10337
▁CrK	-10338
3.94;	-10339
▁38.0	-10340
▁40.0	-10341
▁46.5	-10342
▁AuGa	-10343
▁CoMg	-10344
▁ErPr	-10345
▁LaNa	-10346
0;1.95	-10347
0;3.05	-10348
0;80;8	-10349
14;10;	-10350
16;20;	-10351
2;1.94	-10352
4;1.48	-10353
4;37;3	-10354
6;2.42	-10355
7;1.65	-10356
8;3.01	-10357
9;2.41	-10358
▁128.5	-10359
▁129.2	-10360
▁129.9	-10361
▁139.9	-10362
▁144.8	-10363
▁15.98	-10364
▁151.3	-10365
▁152.8	-10366
▁153.2	-10367
▁161.3	-10368
▁161.4	-10369
▁161.9	-10370
▁162.6	-10371
▁163.0	-10372
▁163.9	-10373
▁164.8	-10374
▁17.09	-10375
0;2.50;	-10376
0;34;36	-10377
0;44;42	-10378
2;2.43;	-10379
2;2.46;	-10380
2;2.76;	-10381
2;22;24	-10382
3;2.47;	-10383
5;25;26	-10384
:31;31;	-10385
1.68;1.7	-10386
14;13;14	-10387
15;14;15	-10388
18;19;18	-10389
2.26;2.0	-10390
2.90;2.6	-10391
26;26;32	-10392
3.24;2.5	-10393
3.26;2.8	-10394
:-4;+2;+	-10395
:21;22;2	-10396
:22;28;2	-10397
:31;20;2	-10398
:31;26;3	-10399
1.55;1.55	-10400
2;44;44;4	-10401
3.16;3.14	-10402
3.23;3.24	-10403
3.27;3.26	-10404
:1.77;1.7	-10405
1;+1;-2;+4	-10406
2.12;2.11;	-10407
2.20;2.19;	-10408
2.35;2.38;	-10409
2.80;2.80;	-10410
2;42;42;42	-10411
3.05;3.05;	-10412
3.12;3.14;	-10413
3.27;3.25;	-10414
3.58;3.58;	-10415
8;2.06;2.0	-10416
:18;18;15;	-10417
2;2.82;2.82	-10418
:+1;+1;+4;+	-10419
:-1;-4;+1;+	-10420
:2.18;2.18;	-10421
:2.37;2.38;	-10422
:20;24;24;3	-10423
:24;24;26;2	-10424
:3.10;3.09;	-10425
:3.17;3.18;	-10426
:32;32;29;2	-10427
:38;39;39;4	-10428
:+1;+3;+1;-3	-10429
:+3;+1;-2;+2	-10430
:14;14;11;17	-10431
:14;14;17;21	-10432
:20;20;26;20	-10433
:24;24;24;24	-10434
2.74;2.74;2.8	-10435
:15;14;15;15;	-10436
:3.01;3.01;3.0	-10437
:31;30;14;19;2	-10438
:+1;-2;-2;+4;+3	-10439
:+2;+3;-4;-4;+2	-10440
:+3;-2;+5;+1;+4	-10441
:2.74;2.74;2.74;	-10442
ClH	-10443
PmP	-10444
1.55	-10445
3_12	-10446
CaCu	-10447
IrPt	-10448
LaMg	-10449
MnTi	-10450
ScSb	-10451
SrTi	-10452
TaGe	-10453
13;10	-10454
1;2.1	-10455
3.98;	-10456
3_121	-10457
:30;4	-10458
:50;6	-10459
:53;4	-10460
▁14.2	-10461
▁39.0	-10462
▁39.5	-10463
▁45.8	-10464
▁46.4	-10465
▁48.9	-10466
▁AcHg	-10467
▁CaMg	-10468
▁CeTb	-10469
▁CuMg	-10470
▁HgIn	-10471
▁LaPt	-10472
▁LaPu	-10473
▁MgPd	-10474
▁NdPu	-10475
0;1.93	-10476
0;2.74	-10477
1;1.80	-10478
2;2.75	-10479
2;2.77	-10480
4;29;4	-10481
4;52;5	-10482
5;1.75	-10483
6;1.76	-10484
6;42;4	-10485
7;1.98	-10486
7;28;3	-10487
8;3.02	-10488
9;2.80	-10489
9;47;5	-10490
▁123.5	-10491
▁126.2	-10492
▁128.9	-10493
▁133.4	-10494
▁136.3	-10495
▁138.7	-10496
▁142.0	-10497
▁15.96	-10498
▁152.9	-10499
▁16.06	-10500
▁16.15	-10501
▁16.31	-10502
▁16.51	-10503
▁16.80	-10504
▁16.83	-10505
▁162.2	-10506
▁17.05	-10507
▁18.38	-10508
0;1.90;	-10509
0;2.31;	-10510
0;34;32	-10511
0;50;44	-10512
1;2.46;	-10513
2;19;20	-10514
2;2.37;	-10515
2;2.48;	-10516
3;+2;+5	-10517
3;22;22	-10518
3;23;22	-10519
6;2.40;	-10520
8;2.58;	-10521
8;35;35	-10522
:11;17;	-10523
:12;17;	-10524
0.99;2.6	-10525
2.28;2.0	-10526
2.31;2.8	-10527
2.44;2.5	-10528
3.11;2.5	-10529
3.32;2.9	-10530
:32;20;3	-10531
:33;30;3	-10532
:39;38;4	-10533
2.71;2.70	-10534
2.76;2.74	-10535
3.29;3.28	-10536
:20;20;20	-10537
1;-3;-3;+2	-10538
2.83;2.83;	-10539
2;2.51;2.5	-10540
2;2.81;2.8	-10541
3.12;3.16;	-10542
3.15;3.17;	-10543
3.53;3.53;	-10544
3;+3;+2;+3	-10545
7;37;37;37	-10546
8;2.88;2.9	-10547
5;2.85;2.85	-10548
:+3;+2;+3;+	-10549
:2.36;2.35;	-10550
:2.74;2.73;	-10551
:2.78;2.79;	-10552
:3.11;3.10;	-10553
:50;44;44;4	-10554
:+2;+3;+3;-2	-10555
:+4;-2;-2;+4	-10556
:-1;+2;+2;+2	-10557
:-3;+1;+1;+3	-10558
:12;13;13;14	-10559
:14;13;13;12	-10560
:14;15;14;14	-10561
:14;17;11;14	-10562
:14;17;14;14	-10563
2.94;2.94;2.9	-10564
:3.50;3.50;3.5	-10565
:42;42;42;40;4	-10566
:+5;+3;+1;-2;+3	-10567
:-1;-1;+1;+1;+2	-10568
:16;16;16;16;16	-10569
3;-2;-2;-2;+4;+4	-10570
KLi	-10571
NbO	-10572
PbO	-10573
UZr	-10574
YCl	-10575
0;51	-10576
2.41	-10577
7;56	-10578
CeNd	-10579
HoPd	-10580
LaSr	-10581
NaAs	-10582
NdPt	-10583
NiAs	-10584
NiSm	-10585
SmSe	-10586
▁190	-10587
▁KLi	-10588
19;15	-10589
▁23.5	-10590
▁47.3	-10591
▁47.7	-10592
▁50.6	-10593
▁AcBa	-10594
▁CePa	-10595
▁CsRb	-10596
▁DyGa	-10597
▁MgRh	-10598
▁MnPd	-10599
0;1.77	-10600
2;1.80	-10601
2;31;2	-10602
3;2.09	-10603
7;2.01	-10604
9;1.87	-10605
▁123.2	-10606
▁127.1	-10607
▁129.6	-10608
▁133.6	-10609
▁138.0	-10610
▁142.2	-10611
▁142.3	-10612
▁143.7	-10613
▁145.3	-10614
▁15.99	-10615
▁159.7	-10616
▁16.35	-10617
0;2.01;	-10618
0;2.78;	-10619
2;2.44;	-10620
3;2.44;	-10621
3;2.49;	-10622
4;26;22	-10623
4_12_12	-10624
5;26;24	-10625
6;2.56;	-10626
7;2.48;	-10627
7;2.88;	-10628
8;2.49;	-10629
9;2.08;	-10630
9;2.49;	-10631
:20;29;	-10632
1.74;2.5	-10633
2.19;2.9	-10634
2.22;2.9	-10635
2.29;2.9	-10636
2.75;2.0	-10637
:+2;-4;+	-10638
:-2;+4;+	-10639
:22;30;2	-10640
:23;18;2	-10641
:29;31;3	-10642
:35;30;3	-10643
:37;33;3	-10644
:41;35;3	-10645
0;22;22;2	-10646
3.13;3.14	-10647
:2.25;2.2	-10648
0;2.40;2.4	-10649
2.31;2.32;	-10650
2.48;2.48;	-10651
2.70;2.69;	-10652
2.70;2.73;	-10653
3.00;3.00;	-10654
3.04;3.04;	-10655
3.29;3.27;	-10656
3.62;3.62;	-10657
4;2.83;2.8	-10658
:18;17;17;	-10659
:19;18;18;	-10660
:-1;+3;+2;+	-10661
:3.15;3.16;	-10662
:3.19;3.17;	-10663
:3.33;3.33;	-10664
:42;44;42;4	-10665
:+2;+2;+2;-2	-10666
:+2;+3;-2;+4	-10667
:+2;-1;+1;+1	-10668
2.76;2.76;2.76	-10669
:2.41;2.41;2.4	-10670
:2.45;2.46;2.4	-10671
:2.59;2.59;2.5	-10672
:+5;+3;+3;+1;-2	-10673
2;-2;-2;-2;+5;+5	-10674
:3.15;3.15;3.15;	-10675
GeP	-10676
NSi	-10677
PuS	-10678
2;68	-10679
InNi	-10680
LaNi	-10681
PuSb	-10682
RuSm	-10683
ZnZr	-10684
▁InK	-10685
16;22	-10686
3.95;	-10687
▁38.9	-10688
▁40.6	-10689
▁42.0	-10690
▁46.1	-10691
▁50.9	-10692
▁51.2	-10693
▁AlNa	-10694
▁ErPm	-10695
▁FeIr	-10696
▁HoMg	-10697
▁LaRh	-10698
▁SmTb	-10699
0;1.87	-10700
1;2.10	-10701
1;2.32	-10702
1;2.70	-10703
2;1.82	-10704
2;2.32	-10705
2;3.05	-10706
3;1.91	-10707
4;52;4	-10708
5;2.77	-10709
6;2.43	-10710
7;1.80	-10711
7;2.03	-10712
7;2.40	-10713
7;29;2	-10714
8;47;4	-10715
:9;12;	-10716
▁124.0	-10717
▁128.4	-10718
▁133.2	-10719
▁138.4	-10720
▁142.1	-10721
▁152.5	-10722
▁157.8	-10723
▁16.11	-10724
▁16.29	-10725
▁16.82	-10726
▁161.1	-10727
▁17.27	-10728
▁17.34	-10729
▁17.88	-10730
▁18.04	-10731
▁18.16	-10732
▁18.57	-10733
0;30;22	-10734
0;40;42	-10735
1;2.79;	-10736
2;+3;-2	-10737
2;2.77;	-10738
2;38;36	-10739
2;42;48	-10740
4;18;24	-10741
6;1.77;	-10742
7;2.00;	-10743
8;38;41	-10744
17;20;20	-10745
19;18;20	-10746
2.95;2.5	-10747
2.96;2.5	-10748
:-2;-2;-	-10749
:26;44;2	-10750
:29;30;2	-10751
:30;22;2	-10752
:31;28;3	-10753
:35;37;3	-10754
:36;30;3	-10755
:37;37;4	-10756
:40;32;3	-10757
:46;43;4	-10758
:48;44;4	-10759
1.96;1.94	-10760
2.75;2.74	-10761
3.15;3.16	-10762
3.29;3.27	-10763
3.35;3.35	-10764
4;29;34;3	-10765
7;42;42;3	-10766
1;+1;-2;-2	-10767
1;2.80;2.8	-10768
2.30;2.26;	-10769
2.30;2.28;	-10770
2.33;2.38;	-10771
2;+2;+3;+3	-10772
2;2.62;2.6	-10773
3.30;3.28;	-10774
3.60;3.60;	-10775
4;28;28;44	-10776
:17;14;14;	-10777
17;17;17;17	-10778
:-2;-3;+3;+	-10779
:2.50;2.50;	-10780
:2.62;2.62;	-10781
:2.80;2.79;	-10782
:3.52;3.52;	-10783
:36;32;32;3	-10784
:+3;+1;-2;+6	-10785
:+5;+2;-2;+2	-10786
:14;14;14;17	-10787
:14;14;18;14	-10788
:23;16;26;18	-10789
1.64;1.64;1.6	-10790
1;-2;-2;-2;+4	-10791
:+2;+2;+3;+4;+	-10792
:2.59;2.59;2.6	-10793
:2.79;2.79;2.8	-10794
:+2;+2;+3;-2;+5	-10795
:+2;+2;-2;+5;+4	-10796
:+3;+3;+1;+1;-2	-10797
:+3;+3;-2;-2;+2	-10798
:+5;+1;+3;-2;+4	-10799
:+5;+1;-2;+4;+4	-10800
:16;18;16;18;17	-10801
51	-10802
80	-10803
FH	-10804
BrH	-10805
NiF	-10806
3;45	-10807
6;12	-10808
GeSe	-10809
NbRu	-10810
NiZn	-10811
PaPu	-10812
RhSi	-10813
▁KMg	-10814
19;28	-10815
3.97;	-10816
4.12;	-10817
6;36;	-10818
9;2.1	-10819
:+7;+	-10820
:1.67	-10821
:56;4	-10822
▁2.88	-10823
▁40.4	-10824
▁41.6	-10825
▁41.8	-10826
▁AcGa	-10827
▁BaIr	-10828
▁CdCs	-10829
▁GaLi	-10830
▁LaMn	-10831
0;2.68	-10832
0;3.02	-10833
3;1.95	-10834
3;2.77	-10835
7;3.01	-10836
7;31;3	-10837
9;2.43	-10838
▁123.6	-10839
▁126.4	-10840
▁127.6	-10841
▁129.5	-10842
▁133.5	-10843
▁134.2	-10844
▁137.1	-10845
▁140.4	-10846
▁140.5	-10847
▁143.8	-10848
▁153.0	-10849
▁153.3	-10850
▁153.4	-10851
▁16.67	-10852
▁16.74	-10853
▁16.85	-10854
▁16.90	-10855
▁166.4	-10856
▁17.56	-10857
▁18.00	-10858
▁18.01	-10859
0;40;38	-10860
3;2.45;	-10861
3;2.64;	-10862
3;43;43	-10863
4;2.02;	-10864
5;26;34	-10865
7;2.55;	-10866
7;2.67;	-10867
7;2.89;	-10868
8;35;36	-10869
8;35;38	-10870
1.02;2.0	-10871
1.91;1.7	-10872
2.76;2.0	-10873
2.81;2.9	-10874
3.28;2.4	-10875
:21;24;2	-10876
:23;21;2	-10877
:23;24;2	-10878
:37;39;4	-10879
:42;40;4	-10880
:43;42;4	-10881
:48;48;5	-10882
2.39;2.38	-10883
3.34;3.34	-10884
:+2;-1;+3	-10885
:1.68;1.6	-10886
:1.72;2.6	-10887
:1.83;1.7	-10888
:1.92;2.0	-10889
:2.95;2.8	-10890
2.82;2.82;	-10891
2.90;2.90;	-10892
2;2.53;2.5	-10893
3.13;3.16;	-10894
5;25;24;24	-10895
:17;18;18;	-10896
:+3;+2;-3;-	-10897
:2.36;2.34;	-10898
:2.66;2.66;	-10899
:2.77;2.78;	-10900
:2.99;2.99;	-10901
:3.22;3.21;	-10902
:3.25;3.26;	-10903
:36;38;38;3	-10904
:43;50;51;4	-10905
4;-2;-2;-2;+	-10906
:+2;-2;-2;+2	-10907
:+3;-1;+1;+1	-10908
:+4;+1;-2;+3	-10909
:22;22;20;20	-10910
3;+3;-2;-2;-2	-10911
:+1;-1;-1;-1;+	-10912
:2.46;2.47;2.4	-10913
:2.77;2.77;2.8	-10914
:47;47;54;54;5	-10915
2;+2;+2;+2;+2;+	-10916
:+2;+3;-2;+5;+2	-10917
:-1;+1;+2;+2;+3	-10918
:-4;-1;+1;+3;+3	-10919
:29;34;34;22;22	-10920
49	-10921
KO	-10922
PuU	-10923
3.74	-10924
CeHo	-10925
DyTb	-10926
ErSm	-10927
FeGa	-10928
InNa	-10929
LaTm	-10930
MgTl	-10931
NaTi	-10932
NpPt	-10933
OsPd	-10934
PaTb	-10935
PmAs	-10936
▁224	-10937
1.19;	-10938
21;18	-10939
4.26;	-10940
:0;0;	-10941
:61;5	-10942
▁38.8	-10943
▁40.5	-10944
▁41.5	-10945
▁50.7	-10946
▁BaCs	-10947
▁CrCu	-10948
▁HfIn	-10949
▁LaRu	-10950
▁NdRh	-10951
0;3.08	-10952
18;22;	-10953
2;2.78	-10954
3;2.00	-10955
3;2.08	-10956
4;1.79	-10957
4;2.09	-10958
4;39;3	-10959
4;43;3	-10960
5;2.08	-10961
5;26;4	-10962
6;1.71	-10963
6;2.78	-10964
6;26;3	-10965
6;28;3	-10966
8;1.76	-10967
8;1.88	-10968
9;1.79	-10969
▁126.3	-10970
▁128.3	-10971
▁136.9	-10972
▁141.2	-10973
▁145.0	-10974
▁153.9	-10975
▁16.05	-10976
▁16.18	-10977
▁16.70	-10978
▁16.91	-10979
▁18.46	-10980
▁18.49	-10981
▁18.52	-10982
▁18.61	-10983
▁18.74	-10984
0;40;32	-10985
14;26;2	-10986
1;-3;-2	-10987
1;2.31;	-10988
1;41;42	-10989
2;2.35;	-10990
2;30;26	-10991
2;33;31	-10992
2;44;42	-10993
3;2.48;	-10994
5;2.03;	-10995
5;36;38	-10996
7;2.43;	-10997
7;37;39	-10998
7;38;38	-10999
:10;11;	-11000
:23;18;	-11001
:24;18;	-11002
1.91;2.4	-11003
16;16;14	-11004
2.32;1.7	-11005
2.84;2.9	-11006
3.24;2.4	-11007
:30;25;2	-11008
:41;45;4	-11009
:44;40;4	-11010
:46;42;4	-11011
0.98;0.98	-11012
1.99;1.97	-11013
2.62;2.62	-11014
3.07;3.08	-11015
3.32;3.32	-11016
6;36;36;3	-11017
:1.36;1.3	-11018
:1.69;1.6	-11019
:1.78;1.7	-11020
:14;19;15	-11021
:2.92;2.9	-11022
:58;58;58	-11023
1.38;1.38;	-11024
1.93;1.92;	-11025
1.98;1.97;	-11026
2.32;2.36;	-11027
2.37;2.33;	-11028
3.12;3.10;	-11029
3;+3;+4;+4	-11030
5;1.54;1.5	-11031
5;1.63;1.6	-11032
7;2.86;2.8	-11033
9;2.88;2.8	-11034
:14;14;15;	-11035
:20;20;20;	-11036
:26;29;29;	-11037
:+2;-2;+2;+	-11038
:2.33;2.34;	-11039
:2.57;2.57;	-11040
:2.94;2.94;	-11041
:3.36;3.36;	-11042
:3.49;3.49;	-11043
:+1;+1;-2;+4	-11044
:+3;-2;+2;+3	-11045
:-1;+2;+1;+2	-11046
:26;20;23;20	-11047
1;-2;-2;+2;+2	-11048
2.10;2.10;2.0	-11049
2.64;2.64;2.6	-11050
3;-2;-2;-2;+4	-11051
:16;18;12;12;	-11052
:+1;+1;+1;+1;+	-11053
:-1;-1;+1;-2;+	-11054
:1.50;1.49;1.5	-11055
:24;24;26;26;2	-11056
:+2;+3;+2;-2;+5	-11057
:+3;+2;-2;+6;+4	-11058
:+5;+1;-2;+3;+4	-11059
:2.33;2.33;2.33;	-11060
:2.78;2.78;2.78;	-11061
VF	-11062
NpH	-11063
TlF	-11064
ZnP	-11065
1.37	-11066
PmTl	-11067
SrTm	-11068
▁124	-11069
▁197	-11070
1.10;	-11071
1.18;	-11072
17;22	-11073
:1.86	-11074
▁19.3	-11075
▁2.90	-11076
▁41.0	-11077
▁47.2	-11078
▁CdCe	-11079
0;2.06	-11080
1;2.75	-11081
2;1.67	-11082
3;1.96	-11083
3;2.74	-11084
3;53;5	-11085
4;2.78	-11086
5;1.63	-11087
5;2.09	-11088
6;3.09	-11089
7;3.03	-11090
8;3.03	-11091
8;3.04	-11092
9;3.02	-11093
▁127.5	-11094
▁130.3	-11095
▁130.7	-11096
▁136.7	-11097
▁141.9	-11098
▁144.1	-11099
▁15.45	-11100
▁152.2	-11101
▁157.3	-11102
▁159.1	-11103
▁16.78	-11104
▁166.6	-11105
▁17.11	-11106
▁17.19	-11107
▁18.35	-11108
▁18.54	-11109
▁18.58	-11110
▁18.65	-11111
▁18.86	-11112
0;2.04;	-11113
1;41;40	-11114
2;1.98;	-11115
2;2.34;	-11116
2;2.74;	-11117
2;2.78;	-11118
2;28;32	-11119
2;34;33	-11120
2;36;36	-11121
3;2.04;	-11122
3;34;34	-11123
4;44;42	-11124
4;50;50	-11125
5;1.99;	-11126
6;42;42	-11127
7;2.97;	-11128
7;36;38	-11129
8;38;39	-11130
8;41;41	-11131
9;2.06;	-11132
9;2.88;	-11133
:17;13;	-11134
0.98;2.8	-11135
1.59;1.5	-11136
1.61;1.5	-11137
18;20;19	-11138
2.13;1.6	-11139
3.08;3.0	-11140
3.23;2.5	-11141
3.28;2.5	-11142
3.35;2.9	-11143
:29;22;2	-11144
:38;26;3	-11145
3.12;3.10	-11146
3.13;3.11	-11147
4;+4;+4;+	-11148
7;37;36;3	-11149
:1.71;2.9	-11150
:1.74;2.4	-11151
2.24;2.25;	-11152
2.32;2.30;	-11153
2.39;2.35;	-11154
2.59;2.59;	-11155
3.08;3.10;	-11156
3.24;3.22;	-11157
3.56;3.56;	-11158
7;2.54;2.5	-11159
:19;19;20;	-11160
:+3;+5;+5;+	-11161
:-1;-1;-2;+	-11162
:18;22;18;2	-11163
:18;22;22;2	-11164
:26;26;28;2	-11165
:3.04;3.04;	-11166
:3.08;3.09;	-11167
:34;30;35;3	-11168
:46;42;42;4	-11169
:14;12;12;14	-11170
:14;16;18;17	-11171
:42;44;44;44	-11172
2.96;2.96;2.9	-11173
2;-2;-2;+5;+5	-11174
:+1;+1;-2;+5;+	-11175
:2.63;2.63;2.6	-11176
:2.76;2.76;2.8	-11177
:2.93;2.91;2.9	-11178
:30;14;31;19;2	-11179
:+2;+3;-2;+4;+3	-11180
:+5;+2;+1;+1;-2	-11181
:50;50;50;50;50	-11182
:3.11;3.11;3.11;	-11183
:3.27;3.27;3.27;	-11184
7;-	-11185
1.02	-11186
3;21	-11187
6;58	-11188
6;62	-11189
AsSb	-11190
InPd	-11191
LaPd	-11192
MnPd	-11193
NdSb	-11194
NdTl	-11195
NiTb	-11196
NpRu	-11197
PdZn	-11198
PrTe	-11199
TlGe	-11200
TmCl	-11201
ZrSb	-11202
0;16;	-11203
16;23	-11204
:1.85	-11205
:54;6	-11206
▁23.4	-11207
▁41.2	-11208
▁CuDy	-11209
▁CuRh	-11210
▁DyMg	-11211
▁InPd	-11212
▁NiPt	-11213
▁NpPd	-11214
▁PuRh	-11215
0;1.72	-11216
1;2.38	-11217
1;3.05	-11218
1;51;5	-11219
2;1.61	-11220
2;2.09	-11221
2;2.25	-11222
2;2.69	-11223
3;2.76	-11224
4;2.77	-11225
6;2.79	-11226
7;1.99	-11227
8;2.05	-11228
9;2.40	-11229
▁123.0	-11230
▁126.8	-11231
▁127.3	-11232
▁128.1	-11233
▁138.5	-11234
▁152.6	-11235
▁152.7	-11236
▁159.8	-11237
▁16.20	-11238
▁16.21	-11239
▁16.75	-11240
▁16.81	-11241
▁167.3	-11242
▁17.31	-11243
▁17.94	-11244
▁17.96	-11245
▁18.09	-11246
0;23;22	-11247
0;36;34	-11248
1;1.39;	-11249
2;2.36;	-11250
2;35;32	-11251
4;1.74;	-11252
5;+2;+2	-11253
5;35;35	-11254
6;50;50	-11255
7;2.46;	-11256
:11;12;	-11257
:22;26;	-11258
:28;29;	-11259
1.24;1.4	-11260
2.20;2.6	-11261
2.70;2.4	-11262
2.80;2.9	-11263
2.82;2.9	-11264
3.29;2.5	-11265
:28;31;2	-11266
:32;20;2	-11267
:35;31;3	-11268
:44;50;4	-11269
2.18;2.18	-11270
2.39;2.40	-11271
2.77;2.74	-11272
2.78;2.80	-11273
2;32;35;3	-11274
3.08;3.10	-11275
3.17;3.16	-11276
1.49;1.49;	-11277
2.30;2.35;	-11278
2;-2;+4;+2	-11279
3.17;3.18;	-11280
3.19;3.22;	-11281
3.63;3.63;	-11282
3;+3;+1;-2	-11283
4;-2;+3;+3	-11284
5;1.78;1.8	-11285
5;2.46;2.4	-11286
8;2.96;2.9	-11287
:+2;+2;+5;+	-11288
:+3;+2;-2;-	-11289
:+5;+2;-1;+	-11290
:2.39;2.38;	-11291
:2.53;2.53;	-11292
:34;32;32;3	-11293
:+2;+3;-2;+3	-11294
:-1;+1;+2;+1	-11295
:13;13;12;14	-11296
:17;14;16;18	-11297
:26;23;16;18	-11298
:2.66;2.66;2.6	-11299
:26;26;32;32;3	-11300
:+5;+4;+3;+1;-2	-11301
:34;26;30;35;34	-11302
:38;38;38;34;34	-11303
22;	-11304
ClP	-11305
TcH	-11306
AsSe	-11307
DyNa	-11308
ErPd	-11309
HfRh	-11310
NiTi	-11311
PuSn	-11312
RuSi	-11313
▁KNb	-11314
1.53;	-11315
1.57;	-11316
4.21;	-11317
5;2.1	-11318
8;31;	-11319
:1.82	-11320
▁39.8	-11321
▁50.2	-11322
▁51.5	-11323
▁CdMg	-11324
▁CeRu	-11325
▁CrGa	-11326
▁CsGa	-11327
▁ErNa	-11328
▁InMn	-11329
▁IrRh	-11330
▁MnRu	-11331
0;1.73	-11332
0;2.05	-11333
0;3.06	-11334
1;1.81	-11335
1;2.68	-11336
1;2.76	-11337
2;2.28	-11338
2;3.09	-11339
4;1.62	-11340
5;1.99	-11341
5;2.69	-11342
5;2.72	-11343
6;1.99	-11344
6;2.00	-11345
7;1.71	-11346
7;1.87	-11347
8;43;4	-11348
9;1.71	-11349
9;2.42	-11350
▁123.9	-11351
▁127.8	-11352
▁130.0	-11353
▁130.8	-11354
▁136.4	-11355
▁141.1	-11356
▁152.1	-11357
▁153.5	-11358
▁159.4	-11359
▁16.46	-11360
▁16.53	-11361
▁16.54	-11362
▁160.4	-11363
▁162.4	-11364
▁17.59	-11365
▁18.05	-11366
▁18.17	-11367
▁18.56	-11368
0;2.34;	-11369
0;2.35;	-11370
0;21;21	-11371
1;2.50;	-11372
1;2.74;	-11373
2;26;29	-11374
2;26;32	-11375
2;40;42	-11376
2;42;40	-11377
3;+1;+4	-11378
3;+3;+6	-11379
4;+2;-2	-11380
4;1.77;	-11381
4;29;22	-11382
4;45;44	-11383
5;2.01;	-11384
5;26;25	-11385
6;36;34	-11386
8;28;30	-11387
8;36;34	-11388
8;38;34	-11389
9;1.77;	-11390
9;2.68;	-11391
:17;11;	-11392
1.39;2.0	-11393
1.60;1.4	-11394
1.64;1.5	-11395
1.86;1.9	-11396
1.99;1.7	-11397
18;21;24	-11398
2.45;2.5	-11399
3.10;2.5	-11400
:34;22;2	-11401
:38;44;4	-11402
:42;42;3	-11403
:47;49;5	-11404
:62;62;6	-11405
2.72;2.73	-11406
3.05;3.05	-11407
3.17;3.14	-11408
3.21;3.19	-11409
3.21;3.20	-11410
:1.76;2.4	-11411
:1.86;1.7	-11412
:2.13;2.1	-11413
:2.21;2.0	-11414
:2.25;2.8	-11415
1.95;1.98;	-11416
1.99;1.97;	-11417
1;2.48;2.4	-11418
1;2.90;2.9	-11419
2.23;2.26;	-11420
2.31;2.29;	-11421
2.37;2.39;	-11422
2.76;2.79;	-11423
3.13;3.11;	-11424
3.21;3.16;	-11425
3;2.06;2.0	-11426
5;2.06;2.0	-11427
:32;26;26;	-11428
:+2;+1;-1;+	-11429
:+3;-1;-1;-	-11430
:+4;-2;+5;+	-11431
:-2;-3;-2;+	-11432
:0.00;0.00;	-11433
:2.27;2.26;	-11434
:2.96;2.96;	-11435
:22;20;20;2	-11436
:3.05;3.05;	-11437
:3.16;3.15;	-11438
:3.21;3.20;	-11439
:3.22;3.20;	-11440
:37;37;37;3	-11441
1;+1;+1;+1;+	-11442
:+1;-2;+6;+3	-11443
:-1;+1;+2;+2	-11444
:22;20;20;22	-11445
1;-2;-2;-2;+5	-11446
2.70;2.70;2.6	-11447
3.04;3.04;3.0	-11448
4;44;44;44;44	-11449
:+2;+2;+2;+1;+	-11450
:2.15;2.15;3.0	-11451
:2.91;2.92;2.9	-11452
3;23;22;32;28;3	-11453
:+1;-2;+5;+4;+4	-11454
:+2;+2;+2;-2;+4	-11455
:+3;+3;+3;-3;-3	-11456
:+3;-1;+3;-2;+3	-11457
:+5;+4;+1;-2;+4	-11458
:20;20;26;26;26	-11459
:30;22;34;34;22	-11460
VP	-11461
:52	-11462
YBr	-11463
1.23	-11464
12;6	-11465
2.04	-11466
CuGa	-11467
MnSe	-11468
MnZn	-11469
NdZn	-11470
SrCl	-11471
SrTa	-11472
ThSe	-11473
ThTl	-11474
1.58;	-11475
4.04;	-11476
4.19;	-11477
4_132	-11478
:12;2	-11479
:63;6	-11480
▁39.4	-11481
▁41.3	-11482
▁45.6	-11483
▁46.3	-11484
▁51.3	-11485
▁AcCa	-11486
▁AcIr	-11487
▁CaPr	-11488
▁ErRu	-11489
▁HoPm	-11490
▁InNi	-11491
▁NdSm	-11492
19;18;	-11493
1;2.27	-11494
1;3.08	-11495
2;19;2	-11496
2;2.23	-11497
2;2.33	-11498
2;3.08	-11499
3;1.70	-11500
3;1.76	-11501
3;1.92	-11502
3;2.37	-11503
4;1.99	-11504
4;24;3	-11505
5;+1;+	-11506
5;2.78	-11507
8;1.63	-11508
8;1.65	-11509
8;2.06	-11510
9;2.44	-11511
9;3.04	-11512
▁127.4	-11513
▁127.7	-11514
▁127.9	-11515
▁128.0	-11516
▁136.0	-11517
▁16.08	-11518
▁16.13	-11519
▁16.94	-11520
▁160.3	-11521
▁162.5	-11522
▁163.1	-11523
▁166.8	-11524
▁17.07	-11525
▁17.08	-11526
▁17.97	-11527
▁17.98	-11528
▁18.45	-11529
▁25.14	-11530
0;22;21	-11531
2;34;28	-11532
3;+5;+2	-11533
4;2.47;	-11534
5;1.77;	-11535
5;2.02;	-11536
6;+1;-2	-11537
7;2.08;	-11538
7;38;39	-11539
8;1.77;	-11540
:21;17;	-11541
1.00;1.5	-11542
14;16;15	-11543
2.19;2.8	-11544
2.26;2.8	-11545
2.50;2.6	-11546
2.51;2.6	-11547
2.99;2.4	-11548
3.10;2.4	-11549
3.12;2.4	-11550
3.32;2.8	-11551
:25;22;2	-11552
:28;27;3	-11553
:28;30;2	-11554
:29;32;3	-11555
:39;35;3	-11556
:45;46;4	-11557
:50;48;5	-11558
1.99;2.00	-11559
2.59;2.59	-11560
2.72;2.69	-11561
3.10;3.11	-11562
3.26;3.25	-11563
:1.38;2.6	-11564
:1.78;3.8	-11565
:13;15;15	-11566
:15;15;15	-11567
:2.23;2.2	-11568
0;2.89;2.9	-11569
2.27;2.25;	-11570
2.27;2.29;	-11571
2.40;2.38;	-11572
2.75;2.78;	-11573
3.23;3.20;	-11574
3.26;3.28;	-11575
3.65;3.65;	-11576
4;2.02;2.0	-11577
5;-2;-2;-2	-11578
26;29;18;18	-11579
3;2.93;2.93	-11580
:+2;+1;+2;+	-11581
:1.98;1.98;	-11582
:2.36;2.37;	-11583
:2.38;2.36;	-11584
:3.01;3.01;	-11585
:3.15;3.12;	-11586
:3.23;3.22;	-11587
:3.25;3.24;	-11588
:32;32;29;3	-11589
:34;28;28;2	-11590
:47;47;44;4	-11591
2;+2;+2;-2;+	-11592
:+2;+1;-2;+6	-11593
:+5;+2;-2;+4	-11594
:-1;+1;+1;+2	-11595
:-1;+1;+1;+3	-11596
:14;14;17;14	-11597
:18;18;17;18	-11598
:20;23;26;18	-11599
:28;22;28;34	-11600
3;+1;+1;-2;-2	-11601
3.10;3.10;3.10	-11602
3.17;3.17;3.17	-11603
:+1;-1;-1;+1;+	-11604
:+3;+1;+1;+1;+	-11605
:+3;-1;-1;-1;+	-11606
:2.62;2.61;2.6	-11607
:2.87;2.87;2.9	-11608
:2.90;2.91;2.9	-11609
:22;34;28;28;2	-11610
:23;22;33;33;3	-11611
:3.00;3.00;3.0	-11612
:38;42;39;39;4	-11613
2.34;2.34;2.34;	-11614
:+2;+3;+1;-2;+4	-11615
:+2;-2;+6;+4;+3	-11616
:+3;+2;+3;+3;-2	-11617
:+5;+3;+1;+1;-2	-11618
:-1;+1;+3;+2;+2	-11619
:38;38;38;34;38	-11620
2;-2;-2;-2;+2;+2	-11621
:2.36;2.36;2.36;	-11622
FGH	-11623
ThU	-11624
0;17	-11625
3.73	-11626
4;51	-11627
5;56	-11628
9;20	-11629
ErPr	-11630
IrLa	-11631
IrOs	-11632
NdAs	-11633
OsSm	-11634
PmPt	-11635
19;23	-11636
8;24;	-11637
:59;6	-11638
:68;7	-11639
▁45.9	-11640
▁47.0	-11641
▁47.4	-11642
▁51.1	-11643
▁AuMg	-11644
▁CaPt	-11645
▁CoLa	-11646
▁CuHo	-11647
▁HfNa	-11648
▁LaTb	-11649
▁LiRh	-11650
▁MgNd	-11651
▁MnNb	-11652
0;2.27	-11653
17;29;	-11654
1;3.09	-11655
2;1.83	-11656
2;3.06	-11657
3;1.94	-11658
3;3.09	-11659
4;1.66	-11660
4;1.97	-11661
5;1.74	-11662
5;2.07	-11663
5;31;3	-11664
6;2.77	-11665
7;1.62	-11666
7;2.65	-11667
7;3.02	-11668
7;3.05	-11669
8;24;2	-11670
9;2.05	-11671
9;3.07	-11672
▁124.2	-11673
▁125.9	-11674
▁129.7	-11675
▁135.7	-11676
▁142.4	-11677
▁157.7	-11678
▁159.9	-11679
▁16.39	-11680
▁160.2	-11681
▁17.06	-11682
▁17.14	-11683
▁17.93	-11684
▁18.07	-11685
▁18.20	-11686
▁18.24	-11687
▁18.34	-11688
▁18.88	-11689
▁18.89	-11690
▁18.93	-11691
0;2.66;	-11692
0;20;21	-11693
0;32;34	-11694
0;40;41	-11695
0;42;38	-11696
18;26;2	-11697
1;2.33;	-11698
1;39;41	-11699
2;+4;+3	-11700
2;1.95;	-11701
2;50;50	-11702
3;2.77;	-11703
4;2.03;	-11704
4;2.37;	-11705
8;2.08;	-11706
8;22;34	-11707
8;38;44	-11708
:20;12;	-11709
1.01;1.5	-11710
1.88;2.4	-11711
13;14;14	-11712
14;14;18	-11713
15;14;13	-11714
2.28;2.9	-11715
2.36;2.8	-11716
3.25;2.4	-11717
:36;44;3	-11718
1.65;1.64	-11719
1.95;1.94	-11720
2.13;2.13	-11721
2;44;44;3	-11722
3.04;3.04	-11723
3.23;3.21	-11724
3.25;3.24	-11725
3.27;3.28	-11726
3.39;3.39	-11727
:+1;-1;+2	-11728
:1.90;2.0	-11729
:2.91;2.9	-11730
1;-1;+2;+2	-11731
2.34;2.32;	-11732
2.40;2.39;	-11733
2.76;2.77;	-11734
2.92;2.92;	-11735
2;1.63;1.6	-11736
3.32;3.31;	-11737
3;2.01;2.0	-11738
3;2.44;2.4	-11739
8;2.87;2.8	-11740
:15;12;18;	-11741
:16;12;18;	-11742
:18;16;19;	-11743
:+1;+1;+1;-	-11744
:2.93;2.93;	-11745
:20;20;22;2	-11746
:26;26;26;3	-11747
:3.03;3.03;	-11748
:3.18;3.16;	-11749
:3.26;3.25;	-11750
:31;32;32;3	-11751
:35;38;35;3	-11752
:44;44;41;4	-11753
:46;44;45;4	-11754
:+1;+3;-2;+6	-11755
:-3;+3;+1;+1	-11756
1;-2;+2;+2;+3	-11757
2.02;2.02;2.0	-11758
:19;19;19;19;	-11759
3.15;3.15;3.15	-11760
:+2;+2;+2;+2;-	-11761
:2.03;2.03;2.0	-11762
:2.78;2.78;2.8	-11763
2.37;2.37;2.37;	-11764
:+2;+1;-2;+5;+4	-11765
:2.77;2.77;2.77;	-11766
:0;	-11767
NaB	-11768
NpU	-11769
PaY	-11770
▁79	-11771
DySm	-11772
ErRh	-11773
IrNi	-11774
MnPt	-11775
NdSn	-11776
PrTl	-11777
SbSe	-11778
TaZr	-11779
▁DyK	-11780
▁HoK	-11781
1.59;	-11782
:20;4	-11783
:70;6	-11784
▁2.89	-11785
▁38.6	-11786
▁50.4	-11787
▁AuIn	-11788
▁BaLi	-11789
▁CdCr	-11790
▁CeIr	-11791
▁CeNa	-11792
▁CsCu	-11793
▁LiNb	-11794
▁NaNi	-11795
▁NpRh	-11796
▁PmPu	-11797
▁PmSm	-11798
▁PtRh	-11799
0;2.07	-11800
0;2.76	-11801
1;2.33	-11802
1;2.73	-11803
1;38;3	-11804
2;2.08	-11805
2;2.22	-11806
3;38;3	-11807
4;1.84	-11808
4;50;5	-11809
5;18;2	-11810
5;3.08	-11811
5;44;4	-11812
6;1.73	-11813
6;2.40	-11814
6;2.41	-11815
7;1.97	-11816
8;1.87	-11817
8;2.04	-11818
8;2.42	-11819
9;1.73	-11820
9;2.03	-11821
9;37;3	-11822
:1.15;	-11823
:9;11;	-11824
▁133.1	-11825
▁144.2	-11826
▁152.4	-11827
▁16.28	-11828
▁16.42	-11829
▁161.0	-11830
▁17.00	-11831
▁17.48	-11832
▁17.66	-11833
▁18.29	-11834
▁18.53	-11835
▁18.60	-11836
0;34;35	-11837
1;2.26;	-11838
1;2.52;	-11839
2;36;34	-11840
2;39;38	-11841
3;2.33;	-11842
4;2.31;	-11843
4;2.68;	-11844
4;44;43	-11845
5;1.64;	-11846
5;2.33;	-11847
5;2.80;	-11848
5;34;36	-11849
6;1.99;	-11850
6;2.48;	-11851
1.00;1.4	-11852
1.80;2.9	-11853
14;15;14	-11854
14;26;22	-11855
16;18;23	-11856
18;16;14	-11857
2.11;1.7	-11858
2.34;2.8	-11859
2.81;2.6	-11860
3.07;3.0	-11861
:25;29;2	-11862
:29;20;3	-11863
:30;35;3	-11864
:36;46;4	-11865
:38;30;3	-11866
:41;38;3	-11867
2.29;2.28	-11868
2.31;2.32	-11869
2.73;2.72	-11870
2.79;2.78	-11871
:16;16;16	-11872
:2.21;2.9	-11873
0;2.61;2.6	-11874
0;2.81;2.8	-11875
0;2.94;2.9	-11876
2.11;2.12;	-11877
2.13;2.12;	-11878
2.24;2.28;	-11879
2.30;2.36;	-11880
2.31;2.30;	-11881
2.84;2.84;	-11882
3.14;3.13;	-11883
3.28;3.25;	-11884
3.57;3.57;	-11885
3;+2;+2;+3	-11886
3;-3;-3;-3	-11887
3;2.42;2.4	-11888
7;2.96;2.9	-11889
8;2.58;2.5	-11890
:14;16;18;	-11891
2;2.92;2.92	-11892
:+3;+1;+2;+	-11893
:2.79;2.80;	-11894
:2.97;2.97;	-11895
:26;24;26;2	-11896
:3.16;3.18;	-11897
:3.19;3.20;	-11898
:3.24;3.23;	-11899
:+1;+3;+4;-2	-11900
:+1;+5;-2;+3	-11901
:+3;-2;+4;+3	-11902
:-4;+2;+2;+2	-11903
:15;12;12;15	-11904
:16;16;17;14	-11905
:26;20;20;20	-11906
2.72;2.72;2.8	-11907
:12;14;12;12;	-11908
:14;14;12;12;	-11909
3.08;3.08;3.08	-11910
:+2;+2;+3;-2;+	-11911
:2.86;2.87;2.8	-11912
:20;20;22;22;2	-11913
2.26;2.26;2.26;	-11914
2;-2;-2;-2;+2;+	-11915
:-1;+3;+1;+2;+2	-11916
:-1;-4;+1;+3;+3	-11917
:26;26;26;20;20	-11918
:28;28;22;34;22	-11919
:38;34;34;38;38	-11920
NpY	-11921
OsO	-11922
TiP	-11923
11;2	-11924
7;49	-11925
HgMg	-11926
PmGe	-11927
PtSr	-11928
PuSc	-11929
ScTa	-11930
TbTi	-11931
▁CdK	-11932
16;21	-11933
2;2.1	-11934
▁169.	-11935
▁39.9	-11936
▁46.2	-11937
▁48.5	-11938
▁49.0	-11939
▁AcPd	-11940
▁AlPd	-11941
▁BaPt	-11942
▁BaRh	-11943
▁BaSr	-11944
▁DyMn	-11945
▁ErPt	-11946
▁HoNa	-11947
▁MnPt	-11948
▁PrPt	-11949
0;2.26	-11950
0;2.66	-11951
1;2.21	-11952
1;2.74	-11953
1;3.07	-11954
4;2.75	-11955
4;2.76	-11956
4;27;3	-11957
5;28;3	-11958
6;1.62	-11959
6;1.65	-11960
6;2.02	-11961
6;2.07	-11962
6;2.08	-11963
6;44;3	-11964
▁136.5	-11965
▁139.1	-11966
▁143.9	-11967
▁144.3	-11968
▁157.1	-11969
▁16.14	-11970
▁16.49	-11971
▁160.5	-11972
▁161.8	-11973
▁17.99	-11974
▁18.21	-11975
▁18.36	-11976
▁18.47	-11977
▁18.72	-11978
▁25.15	-11979
0;2.09;	-11980
0;36;38	-11981
0;41;42	-11982
2;2.39;	-11983
6;1.98;	-11984
6;2.38;	-11985
6;56;56	-11986
7;2.49;	-11987
8;2.86;	-11988
:15;11;	-11989
:16;23;	-11990
:22;24;	-11991
0.99;2.4	-11992
1.62;1.5	-11993
1.94;2.4	-11994
13;20;16	-11995
2.67;2.8	-11996
2.86;2.6	-11997
3.05;2.6	-11998
:18;20;2	-11999
:26;21;2	-12000
:27;28;2	-12001
:28;31;3	-12002
:29;35;3	-12003
:47;47;4	-12004
2.17;2.17	-12005
2.24;2.25	-12006
2.27;2.28	-12007
2.32;2.31	-12008
2.74;2.73	-12009
2.74;2.75	-12010
2.75;2.73	-12011
2.78;2.83	-12012
2.79;2.77	-12013
2;22;22;2	-12014
2;26;26;3	-12015
3.08;3.06	-12016
3.16;3.18	-12017
3.22;3.20	-12018
3.24;3.20	-12019
3.45;3.45	-12020
:1.69;1.7	-12021
:1.85;1.8	-12022
1.94;1.95;	-12023
1;-2;+1;+4	-12024
2.23;2.25;	-12025
2;42;38;38	-12026
3.12;3.09;	-12027
3.15;3.18;	-12028
3.17;3.19;	-12029
3.17;3.20;	-12030
3.31;3.30;	-12031
3;2.94;2.9	-12032
4;2.64;2.6	-12033
4;2.86;2.8	-12034
:12;14;13;	-12035
:+1;+1;-3;-	-12036
:+1;+4;-2;+	-12037
:+2;+3;+4;-	-12038
:1.78;1.78;	-12039
:2.63;2.63;	-12040
:2.78;2.77;	-12041
:28;28;28;3	-12042
:3.00;3.00;	-12043
:3.20;3.18;	-12044
:3.61;3.61;	-12045
:34;34;26;3	-12046
:39;39;39;3	-12047
:+1;+2;-2;+5	-12048
:+3;+1;+1;-2	-12049
:+3;+3;-2;-2	-12050
:+5;+1;-2;+2	-12051
:14;14;15;14	-12052
:28;28;34;22	-12053
3;+3;+3;-2;-2	-12054
:12;16;15;15;	-12055
3.16;3.16;3.16	-12056
:+2;+1;-2;+4;+	-12057
:+2;+2;+4;+4;+	-12058
:+4;+4;-2;-2;+	-12059
:2.93;2.90;2.9	-12060
:2.98;2.97;2.9	-12061
2.31;2.31;2.31;	-12062
:+1;+1;+2;-2;+6	-12063
:-1;+1;+3;-2;+4	-12064
:16;16;18;18;17	-12065
:26;26;22;26;26	-12066
:58;58;58;58;58	-12067
:14;14;14;12;12;	-12068
:3.09;3.09;3.09;	-12069
:3.29;3.29;3.29;	-12070
KF	-12071
VN	-12072
USe	-12073
ZrB	-12074
3;56	-12075
IrMg	-12076
LaAs	-12077
NiOs	-12078
NpPu	-12079
NpTb	-12080
PaPd	-12081
PbTl	-12082
PdTm	-12083
PrSc	-12084
PrSe	-12085
PtZn	-12086
▁KNi	-12087
1.60;	-12088
4.02;	-12089
4.10;	-12090
4.14;	-12091
:1.65	-12092
▁39.7	-12093
▁40.8	-12094
▁51.0	-12095
▁AcLi	-12096
▁AgEr	-12097
▁DyNa	-12098
▁DyTm	-12099
▁HfRh	-12100
▁PdRh	-12101
0;1.81	-12102
0;2.39	-12103
0;3.09	-12104
12;14;	-12105
15;17;	-12106
1;1.73	-12107
1;39;3	-12108
2;1.76	-12109
2;1.85	-12110
2;2.26	-12111
2;26;4	-12112
3;18;2	-12113
3;2.27	-12114
3;3.05	-12115
3;52;5	-12116
4;1.90	-12117
4;1.98	-12118
5;2.30	-12119
5;29;2	-12120
5;3.07	-12121
5;3.09	-12122
6;2.33	-12123
6;2.71	-12124
7;1.76	-12125
7;27;3	-12126
7;3.06	-12127
7;3.08	-12128
7;36;4	-12129
8;1.89	-12130
8;1.97	-12131
8;2.70	-12132
9;2.46	-12133
9;3.06	-12134
:13;9;	-12135
▁144.6	-12136
▁159.3	-12137
▁170.9	-12138
▁18.02	-12139
▁18.41	-12140
▁19.34	-12141
0;2.39;	-12142
0;38;38	-12143
0;40;39	-12144
0;42;40	-12145
0;50;47	-12146
1;+2;+3	-12147
1;1.77;	-12148
1;41;44	-12149
2;2.89;	-12150
2;20;29	-12151
2;26;20	-12152
2;26;30	-12153
2;40;40	-12154
3;+3;-4	-12155
4;2.78;	-12156
4;26;25	-12157
4;34;32	-12158
5;2.37;	-12159
5;35;34	-12160
7;2.35;	-12161
7;47;47	-12162
8;33;38	-12163
1.04;1.0	-12164
1.82;1.6	-12165
19;20;21	-12166
2.15;2.4	-12167
2.16;2.5	-12168
2.75;2.4	-12169
2.83;2.6	-12170
2.84;2.6	-12171
3.03;2.5	-12172
3.23;2.4	-12173
3.35;2.8	-12174
3.85;2.6	-12175
:+3;+6;+	-12176
:19;16;2	-12177
:26;22;3	-12178
:31;30;2	-12179
:38;37;4	-12180
:44;38;3	-12181
:46;41;4	-12182
:48;49;4	-12183
1.97;1.95	-12184
2.23;2.22	-12185
2.74;2.76	-12186
3.16;3.17	-12187
:+3;-1;+4	-12188
:-1;+3;+2	-12189
:1.56;1.5	-12190
:1.78;2.0	-12191
:1.83;1.8	-12192
:15;19;14	-12193
:2.22;2.9	-12194
:2.95;2.9	-12195
0;20;20;20	-12196
1.39;1.39;	-12197
2.26;2.25;	-12198
2.60;2.60;	-12199
2.71;2.70;	-12200
2.79;2.78;	-12201
2.93;2.93;	-12202
2;+1;+1;-2	-12203
3.07;3.09;	-12204
3.15;3.11;	-12205
3;+1;+3;+3	-12206
3;-3;-3;+4	-12207
:26;22;22;	-12208
:-1;-4;-4;+	-12209
:18;20;22;2	-12210
:2.08;2.08;	-12211
:2.34;2.33;	-12212
:26;25;26;2	-12213
:3.09;3.10;	-12214
:3.12;3.11;	-12215
:3.34;3.34;	-12216
:32;26;26;2	-12217
:32;34;34;3	-12218
:34;34;36;3	-12219
:34;38;34;3	-12220
:34;38;38;3	-12221
2;52;52;52;5	-12222
:+3;+1;+2;-2	-12223
:+3;-1;+2;+1	-12224
:12;12;12;13	-12225
:14;16;12;17	-12226
:14;17;16;18	-12227
1;+1;+1;+2;+2	-12228
1;-2;-2;+4;+3	-12229
2.33;2.33;2.33	-12230
3.20;3.20;3.20	-12231
:2.43;2.44;2.4	-12232
:21;21;23;23;2	-12233
:26;26;28;28;2	-12234
1;-1;-1;-1;+1;+	-12235
:+2;+1;+1;-2;+5	-12236
:+4;+1;-2;+5;+4	-12237
:-1;+2;+3;+1;+2	-12238
:-3;-3;+2;+2;+2	-12239
:22;18;18;18;18	-12240
:1.72;1.72;1.72;	-12241
68	-12242
0;1	-12243
BrP	-12244
NbH	-12245
NiY	-12246
NpN	-12247
TiN	-12248
0;60	-12249
1.75	-12250
6;26	-12251
HgIn	-12252
HoMg	-12253
OsTb	-12254
PmSn	-12255
PmTe	-12256
PtTm	-12257
SiTe	-12258
SnTi	-12259
ThTe	-12260
▁158	-12261
▁159	-12262
▁ErK	-12263
15;20	-12264
20;12	-12265
4;1.3	-12266
6;6;6	-12267
:38;5	-12268
▁2.87	-12269
▁48.6	-12270
▁48.7	-12271
▁BaCr	-12272
▁CaHg	-12273
▁CuFe	-12274
▁DyRu	-12275
▁LaNp	-12276
▁MnNd	-12277
▁NiPd	-12278
0;1.60	-12279
0;1.88	-12280
0;2.03	-12281
1;1.88	-12282
2;2.73	-12283
2;34;2	-12284
3;1.78	-12285
3;2.07	-12286
3;2.71	-12287
3;3.08	-12288
4;1.76	-12289
4;2.74	-12290
4;3.06	-12291
4;3.08	-12292
4;3.09	-12293
4;49;4	-12294
5;1.85	-12295
5;31;2	-12296
6;2.04	-12297
7;2.76	-12298
7;3.07	-12299
8;2.40	-12300
8;2.41	-12301
8;27;3	-12302
8;3.05	-12303
:11;9;	-12304
:16;9;	-12305
▁126.7	-12306
▁157.0	-12307
▁157.2	-12308
▁160.9	-12309
▁166.7	-12310
▁17.18	-12311
▁17.20	-12312
▁17.61	-12313
▁17.77	-12314
▁17.95	-12315
▁18.66	-12316
▁18.73	-12317
▁25.26	-12318
0;2.88;	-12319
0;20;17	-12320
0;24;24	-12321
14;29;2	-12322
1;+3;+4	-12323
1;+3;-2	-12324
1;2.75;	-12325
1;31;31	-12326
2;-3;+2	-12327
2;30;32	-12328
2;33;33	-12329
2;48;48	-12330
3;2.34;	-12331
3;2.38;	-12332
3;2.39;	-12333
3;2.78;	-12334
4;-4;-4	-12335
4;2.76;	-12336
4;41;44	-12337
5;2.00;	-12338
5;45;45	-12339
7;2.09;	-12340
7;37;35	-12341
8;37;36	-12342
8;40;40	-12343
9;2.59;	-12344
9;2.87;	-12345
9;39;38	-12346
:16;21;	-12347
:26;28;	-12348
0.98;2.4	-12349
1.53;1.4	-12350
1.99;2.4	-12351
12;12;14	-12352
18;16;19	-12353
3.25;2.5	-12354
:-1;-3;-	-12355
:30;27;3	-12356
:33;38;3	-12357
1.56;1.55	-12358
2.33;2.31	-12359
2.79;2.81	-12360
2.79;2.83	-12361
3.22;3.19	-12362
3.22;3.23	-12363
3.27;3.25	-12364
:0.99;2.0	-12365
:1.76;2.0	-12366
:2.96;2.9	-12367
0;2.91;2.9	-12368
2.11;2.09;	-12369
2.29;2.34;	-12370
2.49;2.49;	-12371
2.71;2.69;	-12372
2.72;2.70;	-12373
2.76;2.78;	-12374
2.98;2.98;	-12375
3.13;3.17;	-12376
3.23;3.19;	-12377
3.30;3.31;	-12378
3;+4;+2;+3	-12379
3;2.63;2.6	-12380
3;3.02;3.0	-12381
5;-2;-2;+1	-12382
6;2.85;2.8	-12383
9;2.87;2.8	-12384
:18;18;16;	-12385
:19;18;20;	-12386
:20;19;20;	-12387
:-3;-3;-2;+	-12388
:1.38;2.71;	-12389
:1.88;1.88;	-12390
:2.25;2.24;	-12391
:2.37;1.77;	-12392
:2.75;2.73;	-12393
:3.08;3.07;	-12394
:3.23;3.20;	-12395
:34;34;22;2	-12396
:38;42;41;3	-12397
:44;44;43;4	-12398
:+2;+2;-2;+2	-12399
:+2;+3;-2;+5	-12400
:+2;-2;+5;+2	-12401
:-1;+1;+1;+4	-12402
:-1;-1;+3;+1	-12403
:15;14;14;14	-12404
:23;26;16;18	-12405
:23;26;20;20	-12406
:23;26;26;23	-12407
8;44;44;44;44	-12408
2.39;2.39;2.39	-12409
:+4;+1;+2;-2;+	-12410
:2.45;2.44;2.4	-12411
:3.03;3.03;3.0	-12412
:36;36;32;38;3	-12413
:38;38;42;35;3	-12414
:38;38;42;38;3	-12415
:38;38;42;42;3	-12416
:+2;+1;+1;-2;+6	-12417
:+2;+2;-2;-2;+4	-12418
:+2;+3;-2;+6;+4	-12419
:+3;+2;+1;-2;+2	-12420
:+3;+3;+1;-2;+1	-12421
:+3;+3;-4;+2;+2	-12422
:+3;-1;+3;+3;-2	-12423
:+5;+2;+2;+1;-2	-12424
2;-2;-2;-2;+6;+6	-12425
BrI	-12426
DyY	-12427
FeH	-12428
HoK	-12429
ZrS	-12430
0;68	-12431
7;20	-12432
CuEr	-12433
DyHg	-12434
HoPu	-12435
LaPu	-12436
MgSr	-12437
NaSm	-12438
NpTm	-12439
OsPb	-12440
RbSe	-12441
ScTl	-12442
18;11	-12443
2;3.3	-12444
4.00;	-12445
4.03;	-12446
4;24;	-12447
6;9;9	-12448
▁2.82	-12449
▁40.1	-12450
▁40.2	-12451
▁AcRh	-12452
▁BaIn	-12453
▁CdFe	-12454
▁CuMn	-12455
▁CuPt	-12456
▁FeLa	-12457
▁IrPt	-12458
▁PrSm	-12459
0;2.09	-12460
1;+2;+	-12461
1;2.71	-12462
1;2.72	-12463
2;1.63	-12464
2;2.21	-12465
2;2.27	-12466
2;2.35	-12467
2;2.37	-12468
3;1.93	-12469
3;2.36	-12470
4;2.73	-12471
5;2.39	-12472
5;2.75	-12473
6;1.98	-12474
6;58;5	-12475
7;1.91	-12476
8;1.94	-12477
8;30;2	-12478
9;1.88	-12479
9;27;3	-12480
9;3.09	-12481
▁126.5	-12482
▁126.6	-12483
▁128.6	-12484
▁136.1	-12485
▁140.3	-12486
▁160.1	-12487
▁161.7	-12488
▁17.28	-12489
▁17.37	-12490
▁17.41	-12491
▁17.62	-12492
▁170.0	-12493
▁18.22	-12494
▁18.31	-12495
▁18.32	-12496
▁18.40	-12497
▁18.70	-12498
▁18.75	-12499
▁18.80	-12500
▁18.95	-12501
▁19.21	-12502
▁19.89	-12503
0;1.77;	-12504
0;1.95;	-12505
0;2.67;	-12506
0;28;29	-12507
0;34;38	-12508
2;2.80;	-12509
2;28;30	-12510
3;18;18	-12511
3;2.37;	-12512
3;34;30	-12513
4;2.01;	-12514
6;2.36;	-12515
8;26;27	-12516
9;29;30	-12517
9;39;41	-12518
9;41;41	-12519
:12;20;	-12520
:13;11;	-12521
:28;28;	-12522
1.98;1.7	-12523
2.01;1.9	-12524
2.10;1.9	-12525
2.27;2.5	-12526
2.54;2.6	-12527
2.55;2.6	-12528
2.86;2.9	-12529
2.91;2.5	-12530
20;14;14	-12531
3.02;2.6	-12532
3.04;2.6	-12533
3.12;2.5	-12534
3.22;2.4	-12535
:+2;+6;+	-12536
:29;24;3	-12537
:34;36;2	-12538
:35;35;4	-12539
:43;39;4	-12540
2.19;2.19	-12541
2.63;2.63	-12542
2.71;2.69	-12543
2.76;2.78	-12544
2.79;2.82	-12545
3.03;3.03	-12546
3.33;3.33	-12547
:-1;+4;+2	-12548
:1.77;2.0	-12549
:1.80;1.8	-12550
:14;13;14	-12551
:38;38;38	-12552
1.94;1.93;	-12553
1.94;1.96;	-12554
1;-2;+2;+4	-12555
1;2.92;2.9	-12556
2.10;2.08;	-12557
2.23;2.22;	-12558
2.23;2.24;	-12559
2.32;2.39;	-12560
2.34;2.38;	-12561
2.35;2.32;	-12562
2.36;2.33;	-12563
2.91;2.91;	-12564
2.95;2.95;	-12565
2;+1;-2;+2	-12566
2;-2;+5;+5	-12567
3.18;3.19;	-12568
3;+2;+4;+4	-12569
3;+3;+3;+4	-12570
3;23;23;23	-12571
4;2.42;2.4	-12572
4;24;21;21	-12573
5;2.93;2.9	-12574
7;2.48;2.4	-12575
:20;16;18;	-12576
18;18;19;19	-12577
8;2.88;2.88	-12578
:+5;+1;+2;+	-12579
:1.39;1.38;	-12580
:2.95;2.95;	-12581
:3.14;3.12;	-12582
:32;26;26;3	-12583
:37;38;38;3	-12584
:45;44;45;4	-12585
:+1;-2;+4;+2	-12586
:+2;+2;+1;-3	-12587
:-1;+3;+1;-2	-12588
:14;17;16;12	-12589
:15;12;12;14	-12590
:15;18;12;12	-12591
:20;22;20;22	-12592
:23;20;26;18	-12593
:26;26;23;26	-12594
:44;44;44;44	-12595
1.55;1.55;1.5	-12596
2;-2;-2;+4;+3	-12597
2;-2;-2;-2;+5	-12598
3.60;3.60;3.5	-12599
:-1;-1;+3;+3;+	-12600
:-1;-1;-2;-2;+	-12601
:33;33;32;28;3	-12602
:+2;+1;-2;+4;+3	-12603
:+3;+3;+3;-2;+3	-12604
:+3;-1;+1;+1;+3	-12605
:+5;+1;+1;+2;-2	-12606
:+5;+3;-2;-2;+3	-12607
:26;20;20;26;26	-12608
:42;44;42;37;38	-12609
3;+3;+3;+1;+1;+1	-12610
:2.28;2.28;2.28;	-12611
CCl	-12612
NdB	-12613
SmU	-12614
SrF	-12615
VSe	-12616
VZr	-12617
0;47	-12618
1.60	-12619
2.02	-12620
2;49	-12621
3;52	-12622
8;45	-12623
9;18	-12624
9;31	-12625
CoFe	-12626
LaRh	-12627
MgGe	-12628
MgTb	-12629
NbAs	-12630
NdPb	-12631
PaSm	-12632
▁KLa	-12633
4.18;	-12634
:72;7	-12635
▁2.83	-12636
▁38.7	-12637
▁40.3	-12638
▁46.9	-12639
▁49.2	-12640
▁AgCs	-12641
▁AuCd	-12642
▁BaDy	-12643
▁CsIn	-12644
▁CsPt	-12645
▁FeRh	-12646
▁HfPd	-12647
▁InPt	-12648
▁MgNb	-12649
▁MnRb	-12650
0;1.70	-12651
0;2.04	-12652
0;2.24	-12653
2;2.29	-12654
2;2.31	-12655
2;2.71	-12656
3;1.88	-12657
3;2.75	-12658
5;1.96	-12659
5;2.35	-12660
5;2.38	-12661
7;1.67	-12662
7;3.04	-12663
8;3.06	-12664
8;3.07	-12665
9;1.76	-12666
9;2.04	-12667
:0.00;	-12668
▁123.8	-12669
▁16.36	-12670
▁160.7	-12671
▁165.5	-12672
▁17.02	-12673
▁17.36	-12674
▁17.55	-12675
▁17.60	-12676
▁17.75	-12677
▁171.1	-12678
▁18.13	-12679
▁18.19	-12680
▁18.27	-12681
▁18.28	-12682
▁18.68	-12683
▁18.81	-12684
▁18.90	-12685
0;2.60;	-12686
0;20;32	-12687
0;26;30	-12688
17;17;2	-12689
1;2.77;	-12690
2;1.99;	-12691
3;-3;-2	-12692
3;2.79;	-12693
3;34;36	-12694
4;2.77;	-12695
4;26;30	-12696
4;26;32	-12697
5;35;37	-12698
6;-2;+5	-12699
7;2.68;	-12700
8;28;26	-12701
:13;10;	-12702
:13;17;	-12703
1.57;1.5	-12704
1.83;1.6	-12705
1.84;2.0	-12706
1.95;2.4	-12707
14;14;19	-12708
15;16;14	-12709
17;17;15	-12710
2.25;2.8	-12711
2.28;2.8	-12712
2.65;2.9	-12713
26;26;27	-12714
3.01;2.4	-12715
3.11;2.4	-12716
3.37;2.9	-12717
:-2;-4;-	-12718
:20;16;2	-12719
:21;19;2	-12720
:25;29;3	-12721
:29;26;3	-12722
:33;39;3	-12723
:38;42;3	-12724
:40;38;3	-12725
:45;41;4	-12726
:58;57;5	-12727
1.64;1.60	-12728
1.64;1.63	-12729
2.16;2.16	-12730
2.66;2.66	-12731
2.75;2.78	-12732
2;34;35;3	-12733
3.37;3.37	-12734
3.55;3.55	-12735
8;44;44;4	-12736
:1.93;2.0	-12737
:36;36;37	-12738
0;2.48;2.4	-12739
0;2.92;2.9	-12740
2.17;2.18;	-12741
2.21;2.18;	-12742
2.35;2.31;	-12743
2.78;2.80;	-12744
2;2.48;2.4	-12745
3.10;3.14;	-12746
3.18;3.14;	-12747
3.29;3.31;	-12748
3.46;3.47;	-12749
3;2.91;2.9	-12750
5;1.65;1.6	-12751
6;2.87;2.8	-12752
7;2.44;2.4	-12753
8;42;38;38	-12754
9;2.59;2.5	-12755
9;2.99;2.9	-12756
:22;18;20;	-12757
:23;16;18;	-12758
:2.29;2.28;	-12759
:2.75;2.74;	-12760
:2.75;2.76;	-12761
:2.76;2.74;	-12762
:22;22;29;3	-12763
:26;24;22;2	-12764
:3.23;3.21;	-12765
:3.27;3.28;	-12766
:3.62;3.62;	-12767
:32;32;34;3	-12768
9;29;32;32;3	-12769
:+1;-2;+5;+4	-12770
:+2;+2;-1;+2	-12771
:+2;-1;+3;+1	-12772
:+3;+3;-2;+6	-12773
:12;12;11;14	-12774
:12;12;14;11	-12775
:12;15;18;12	-12776
:15;12;12;18	-12777
:16;26;23;18	-12778
:26;16;18;23	-12779
:28;28;28;28	-12780
:44;42;44;44	-12781
1.94;1.94;1.9	-12782
1.99;1.99;2.0	-12783
3;+1;+2;-2;+4	-12784
:23;23;23;23;	-12785
:+3;+2;-2;-2;+	-12786
:+4;-2;-2;-2;+	-12787
:2.52;2.52;2.5	-12788
:2.55;2.55;2.5	-12789
:2.61;2.62;2.6	-12790
:2.88;2.87;2.8	-12791
:2.92;2.93;2.9	-12792
:2.94;2.93;2.9	-12793
:2.96;2.95;2.9	-12794
:2.96;2.97;2.9	-12795
:34;34;30;30;3	-12796
2.27;2.27;2.27;	-12797
:+2;+2;+5;-2;+3	-12798
:+2;+3;+3;+2;-4	-12799
:+2;-1;-1;+1;+1	-12800
:+3;+1;+1;-2;+3	-12801
:+3;+4;+1;-2;-2	-12802
:20;16;12;12;12	-12803
:22;29;22;34;34	-12804
:3.12;3.12;3.12;	-12805
:3.37;3.37;3.37;	-12806
58	-12807
2;8	-12808
ClF	-12809
RhS	-12810
SrU	-12811
TbU	-12812
ZnS	-12813
0;58	-12814
0;62	-12815
8;13	-12816
DyPr	-12817
MgPt	-12818
NdPu	-12819
NiTm	-12820
OsTm	-12821
RhTl	-12822
RuTh	-12823
▁KPd	-12824
21;14	-12825
2;19;	-12826
4.01;	-12827
4.09;	-12828
:1.64	-12829
:48;3	-12830
▁2.80	-12831
▁48.8	-12832
▁AlHo	-12833
▁AuCe	-12834
▁AuPd	-12835
▁BaHg	-12836
▁CdPr	-12837
▁CoHf	-12838
▁DyNp	-12839
▁LiPd	-12840
0;2.25	-12841
0;37;3	-12842
10;11;	-12843
14;15;	-12844
1;35;3	-12845
2;1.86	-12846
2;2.74	-12847
3;1.60	-12848
3;1.79	-12849
4;1.70	-12850
4;1.80	-12851
4;1.94	-12852
5;28;2	-12853
5;43;4	-12854
6;1.93	-12855
6;2.75	-12856
7;2.70	-12857
7;3.09	-12858
8;1.98	-12859
▁135.2	-12860
▁135.6	-12861
▁135.8	-12862
▁136.2	-12863
▁159.6	-12864
▁16.16	-12865
▁161.6	-12866
▁17.25	-12867
▁17.33	-12868
▁17.44	-12869
▁18.50	-12870
▁18.64	-12871
▁18.67	-12872
▁18.78	-12873
▁18.84	-12874
▁19.07	-12875
▁19.08	-12876
▁19.17	-12877
▁19.24	-12878
▁19.30	-12879
▁19.61	-12880
▁25.91	-12881
0;1.97;	-12882
0;19;29	-12883
0;2.37;	-12884
0;2.98;	-12885
0;20;29	-12886
2;20;18	-12887
2;26;25	-12888
2;34;26	-12889
2;35;34	-12890
2;38;39	-12891
4;2.74;	-12892
4;2.79;	-12893
4;26;28	-12894
6;-2;-2	-12895
7;1.97;	-12896
7;2.41;	-12897
8;26;28	-12898
8;28;44	-12899
8;36;35	-12900
9;43;43	-12901
:10;12;	-12902
:15;19;	-12903
:15;20;	-12904
0.97;1.5	-12905
0.98;1.4	-12906
1.97;2.8	-12907
13;24;24	-12908
18;16;17	-12909
2.08;1.7	-12910
2.24;1.6	-12911
2.96;2.6	-12912
3.06;2.5	-12913
3.20;2.5	-12914
3.31;2.6	-12915
3.33;3.0	-12916
3.34;2.8	-12917
:17;17;2	-12918
:19;21;2	-12919
:20;29;2	-12920
:23;28;2	-12921
:24;27;2	-12922
:26;32;2	-12923
:28;24;2	-12924
:28;32;3	-12925
:28;36;3	-12926
:30;34;2	-12927
:34;38;4	-12928
:35;39;3	-12929
1.93;1.92	-12930
1.99;2.01	-12931
2.73;2.74	-12932
2.75;2.77	-12933
3.10;3.08	-12934
3.11;3.09	-12935
3.15;3.12	-12936
3.16;3.15	-12937
3.18;3.16	-12938
3.18;3.19	-12939
3.24;3.25	-12940
3.40;3.40	-12941
4;34;36;3	-12942
:-1;-1;+3	-12943
:1.71;2.8	-12944
:1.77;3.6	-12945
:1.89;2.4	-12946
:2.12;2.1	-12947
:2.13;1.7	-12948
0;22;22;22	-12949
2.13;2.11;	-12950
2.33;2.39;	-12951
2.35;2.37;	-12952
2.36;2.39;	-12953
2.81;2.81;	-12954
2;+2;+1;-2	-12955
2;2.83;2.8	-12956
2;22;18;18	-12957
2;48;48;42	-12958
3.30;3.29;	-12959
3.68;3.68;	-12960
5;2.44;2.4	-12961
:16;18;19;	-12962
:+4;+4;+2;+	-12963
:2.26;2.25;	-12964
:2.77;2.79;	-12965
:22;24;24;2	-12966
:24;20;20;2	-12967
:3.02;3.02;	-12968
:3.32;3.32;	-12969
:3.35;3.35;	-12970
:32;31;31;3	-12971
:34;34;30;2	-12972
:34;36;34;3	-12973
:36;38;36;3	-12974
:37;36;36;3	-12975
:38;38;35;3	-12976
:43;44;43;4	-12977
:44;42;44;4	-12978
:+2;-2;-2;+3	-12979
:+3;+2;+3;-2	-12980
:+3;+4;-2;+3	-12981
:+3;-2;-2;+4	-12982
:-3;+2;+2;+1	-12983
:12;12;13;12	-12984
:18;16;23;26	-12985
:23;20;26;20	-12986
:23;23;26;26	-12987
:34;30;36;36	-12988
1.74;1.74;1.7	-12989
1;+1;+1;+2;-2	-12990
1;+1;+1;+3;+3	-12991
1;-2;-2;-2;+3	-12992
2;34;34;30;22	-12993
:15;16;15;15;	-12994
1.74;1.74;1.74	-12995
2.73;2.73;2.73	-12996
3.18;3.18;3.18	-12997
:2.44;2.45;2.4	-12998
:2.46;2.45;2.4	-12999
:2.54;2.54;2.5	-13000
:2.64;2.64;2.6	-13001
:2.82;2.81;2.8	-13002
:2.86;2.85;2.8	-13003
:2.87;2.88;2.8	-13004
:2.95;2.94;2.9	-13005
2.40;2.40;2.40;	-13006
:+2;+2;+3;+3;-4	-13007
:+2;+3;-2;+3;+4	-13008
:+3;+1;+1;-2;+5	-13009
:+3;+3;-2;+4;+2	-13010
:+5;+3;-2;+1;+4	-13011
:-1;-1;+1;+1;+1	-13012
:22;34;30;30;22	-13013
1;+1;+1;+1;-2;-2	-13014
:2.21;2.21;2.21;	-13015
:2.35;2.35;2.35;	-13016
:2.38;2.38;2.38;	-13017
:3.14;3.14;3.14;	-13018
BGe	-13019
ITe	-13020
KAs	-13021
OSe	-13022
OsH	-13023
OsY	-13024
ReH	-13025
TaP	-13026
1;53	-13027
3.77	-13028
4;53	-13029
9;43	-13030
CuIr	-13031
GeTe	-13032
InPt	-13033
LaSi	-13034
LiZn	-13035
MgSm	-13036
MnNb	-13037
NaPr	-13038
NiPb	-13039
NpSm	-13040
PaGe	-13041
TbBr	-13042
0.75;	-13043
17;26	-13044
26;16	-13045
4;18;	-13046
:47;3	-13047
▁18.1	-13048
▁2.78	-13049
▁2.86	-13050
▁41.1	-13051
▁41.7	-13052
▁46.8	-13053
▁AuEr	-13054
▁CoPt	-13055
▁CrPd	-13056
▁CuLi	-13057
▁DyIr	-13058
▁ErTm	-13059
▁GaNi	-13060
▁HoIr	-13061
▁HoTm	-13062
▁MgPt	-13063
▁NaNd	-13064
▁NdRu	-13065
▁NdTb	-13066
0;36;4	-13067
2;2.34	-13068
2;2.72	-13069
5;2.34	-13070
6;1.87	-13071
6;2.72	-13072
6;2.74	-13073
7;2.79	-13074
8;1.79	-13075
8;1.99	-13076
8;2.07	-13077
9;2.77	-13078
▁128.7	-13079
▁134.7	-13080
▁135.9	-13081
▁152.3	-13082
▁17.24	-13083
▁17.29	-13084
▁17.40	-13085
▁17.42	-13086
▁17.43	-13087
▁17.49	-13088
▁17.58	-13089
▁17.69	-13090
▁17.74	-13091
▁17.83	-13092
▁17.84	-13093
▁18.39	-13094
▁18.69	-13095
▁18.71	-13096
▁18.83	-13097
▁18.85	-13098
▁19.19	-13099
▁19.50	-13100
▁25.13	-13101
0;2.03;	-13102
0;2.91;	-13103
0;42;41	-13104
1;2.28;	-13105
1;22;22	-13106
2;2.47;	-13107
2;32;38	-13108
3;2.69;	-13109
4;2.36;	-13110
4;2.51;	-13111
5;2.79;	-13112
7;2.03;	-13113
7;2.51;	-13114
8;37;37	-13115
9;41;40	-13116
9;44;44	-13117
1.03;1.4	-13118
1.63;1.5	-13119
1.79;1.6	-13120
14;12;14	-13121
18;16;20	-13122
2.21;2.8	-13123
2.27;2.8	-13124
2.42;2.5	-13125
2.73;2.0	-13126
2.85;2.9	-13127
2.87;2.6	-13128
2.92;2.5	-13129
2.97;2.6	-13130
2.98;2.6	-13131
3.01;2.6	-13132
3.10;3.0	-13133
3.21;2.6	-13134
3.38;2.9	-13135
3.44;2.4	-13136
:-2;+3;+	-13137
:-3;-4;+	-13138
:30;24;2	-13139
:40;30;3	-13140
:40;44;4	-13141
:44;48;4	-13142
:46;50;4	-13143
:47;44;4	-13144
:50;48;4	-13145
1.95;1.96	-13146
1;41;41;4	-13147
2.15;2.15	-13148
2.70;2.68	-13149
2.72;2.70	-13150
2.76;2.80	-13151
2;+2;+1;+	-13152
2;22;18;2	-13153
3.01;3.01	-13154
3.13;3.15	-13155
3.38;3.38	-13156
3.59;3.59	-13157
4;39;39;3	-13158
:1.73;2.0	-13159
:13;12;14	-13160
:18;16;16	-13161
:2.49;2.6	-13162
1.50;1.50;	-13163
1;-2;+1;+6	-13164
2.10;2.11;	-13165
2.20;2.21;	-13166
2.34;2.31;	-13167
2.34;2.36;	-13168
2.35;2.40;	-13169
2.41;2.38;	-13170
2;38;38;38	-13171
3.08;3.14;	-13172
3.22;3.19;	-13173
3.24;3.20;	-13174
3.26;3.23;	-13175
3;+3;+2;+4	-13176
4;+3;+1;-2	-13177
4;-2;-2;+4	-13178
5;0.97;2.0	-13179
5;2.94;2.9	-13180
8;2.07;2.0	-13181
9;1.77;2.5	-13182
:14;15;16;	-13183
:16;15;14;	-13184
:18;18;19;	-13185
:20;18;19;	-13186
:23;18;16;	-13187
:1.87;1.87;	-13188
:22;22;18;2	-13189
:3.14;3.15;	-13190
:3.37;3.37;	-13191
:3.54;3.54;	-13192
:44;50;44;4	-13193
:47;54;54;5	-13194
:-2;-2;+4;+4	-13195
:18;14;16;17	-13196
:18;22;18;18	-13197
:62;62;48;48	-13198
1;+1;+1;-2;-2	-13199
2.78;2.78;2.78	-13200
:+5;+5;+2;+1;+	-13201
:2.44;2.43;2.4	-13202
:2.89;2.89;2.8	-13203
:2.97;2.95;2.9	-13204
:41;41;38;38;4	-13205
2;-2;-2;-2;+1;+	-13206
:+1;+1;+3;+3;-2	-13207
:+3;+1;+2;-2;+5	-13208
:+4;+1;+3;-2;-2	-13209
:+4;+1;-2;+5;+3	-13210
:+5;+1;+2;-2;+4	-13211
:-1;-1;+1;+2;+1	-13212
:-1;-1;-1;+2;+3	-13213
:3.36;3.36;3.36;	-13214
8;9	-13215
HoP	-13216
NiS	-13217
PaH	-13218
PrS	-13219
2;47	-13220
4;-1	-13221
9;46	-13222
CuRh	-13223
ErMg	-13224
HoLi	-13225
HoMn	-13226
MnZr	-13227
NdSc	-13228
PaRu	-13229
PmSe	-13230
PmSi	-13231
PrRu	-13232
RbTe	-13233
RhTi	-13234
TiSb	-13235
▁HfK	-13236
1.05;	-13237
13;18	-13238
7;2.1	-13239
:42;2	-13240
:57;6	-13241
:76;7	-13242
▁2.91	-13243
▁38.4	-13244
▁48.4	-13245
▁49.6	-13246
▁49.7	-13247
▁49.8	-13248
▁AlNi	-13249
▁CdRh	-13250
▁HfNi	-13251
▁LaLi	-13252
▁NbTi	-13253
1;30;3	-13254
2;51;4	-13255
3;1.89	-13256
3;24;2	-13257
3;38;4	-13258
4;1.91	-13259
4;2.28	-13260
5;1.89	-13261
5;2.73	-13262
6;41;3	-13263
7;2.75	-13264
8;2.78	-13265
8;3.08	-13266
9;1.97	-13267
:1.06;	-13268
:1.07;	-13269
:1.31;	-13270
▁134.6	-13271
▁135.0	-13272
▁168.3	-13273
▁17.15	-13274
▁17.68	-13275
▁17.79	-13276
▁17.81	-13277
▁17.87	-13278
▁17.90	-13279
▁18.55	-13280
▁18.87	-13281
▁18.92	-13282
▁19.66	-13283
▁20.05	-13284
▁24.32	-13285
▁25.19	-13286
▁25.20	-13287
0;2.69;	-13288
0;21;18	-13289
1;21;21	-13290
1;21;24	-13291
2;2.31;	-13292
2;2.69;	-13293
2;20;24	-13294
2;26;24	-13295
2;32;36	-13296
3;+3;+5	-13297
3;+4;-2	-13298
3;2.98;	-13299
4;+1;+3	-13300
4;34;22	-13301
4;42;43	-13302
4;44;46	-13303
5;2.32;	-13304
5;2.34;	-13305
5;35;36	-13306
5;35;38	-13307
5;36;35	-13308
6;2.06;	-13309
6;2.09;	-13310
6;2.79;	-13311
7;1.98;	-13312
7;26;26	-13313
8;2.89;	-13314
:21;19;	-13315
0.99;2.5	-13316
1.60;1.5	-13317
1.80;1.6	-13318
1.97;2.4	-13319
18;17;17	-13320
2.19;2.6	-13321
2.58;2.9	-13322
2.73;2.6	-13323
2.76;2.6	-13324
2.85;2.6	-13325
2.88;2.6	-13326
2.92;2.6	-13327
26;29;26	-13328
3.24;3.2	-13329
3.27;2.6	-13330
:+4;+1;-	-13331
:-1;+4;-	-13332
:20;23;3	-13333
:29;25;2	-13334
:32;27;3	-13335
:40;37;3	-13336
:41;36;3	-13337
:58;56;5	-13338
1.96;1.97	-13339
2.26;2.27	-13340
2.30;2.29	-13341
2.33;2.32	-13342
2.61;2.61	-13343
2.79;2.74	-13344
3.09;3.10	-13345
4;26;26;3	-13346
4;54;46;5	-13347
:1.39;2.0	-13348
:1.84;1.8	-13349
:20;22;20	-13350
:22;23;16	-13351
0;2.01;2.0	-13352
0;3.00;3.0	-13353
0;34;33;40	-13354
0;34;34;30	-13355
1.94;1.98;	-13356
1.94;1.99;	-13357
1;+1;+3;-2	-13358
2.13;2.14;	-13359
2.24;2.22;	-13360
2.30;2.32;	-13361
2.31;2.35;	-13362
2.72;2.74;	-13363
2.99;2.99;	-13364
3.17;3.14;	-13365
3;+2;+1;-2	-13366
3;-2;+4;+4	-13367
3;2.54;2.5	-13368
3;2.62;2.6	-13369
3;2.84;2.8	-13370
5;26;26;24	-13371
6;1.76;1.7	-13372
6;2.45;2.4	-13373
:16;18;20;	-13374
:20;19;19;	-13375
5;2.95;2.95	-13376
:2.28;2.27;	-13377
:2.34;2.35;	-13378
:2.72;2.73;	-13379
:26;28;28;2	-13380
:28;29;29;3	-13381
:3.07;3.09;	-13382
:3.21;3.18;	-13383
:3.21;3.19;	-13384
:3.58;3.58;	-13385
:34;35;34;3	-13386
:50;50;50;5	-13387
:56;56;56;5	-13388
3;+2;+2;+2;+	-13389
:+1;+1;+3;-2	-13390
:+2;-2;+4;+2	-13391
:+3;+2;-2;+2	-13392
:+3;+5;+1;-2	-13393
:14;17;14;21	-13394
:17;17;17;17	-13395
:20;26;20;20	-13396
:22;28;28;34	-13397
:35;32;26;26	-13398
:38;38;32;32	-13399
:56;56;56;56	-13400
1.56;1.56;1.5	-13401
1;-1;-1;+1;+1	-13402
2.74;2.74;2.74	-13403
:+3;+3;+3;+1;+	-13404
:+4;+3;+1;+1;+	-13405
:2.39;2.39;2.4	-13406
:2.45;2.47;2.4	-13407
:2.68;2.68;2.6	-13408
:2.89;2.90;2.9	-13409
:50;50;50;50;4	-13410
:+1;+1;-2;+3;+3	-13411
:+2;+1;-2;+3;+6	-13412
:+3;+3;+3;-2;+2	-13413
:-1;-1;+2;+1;+1	-13414
:18;16;18;17;16	-13415
:3.13;3.13;3.13;	-13416
:3.23;3.23;3.23;	-13417
CSb	-13418
GeS	-13419
NdP	-13420
1;43	-13421
3.75	-13422
3.82	-13423
CuIn	-13424
DyTm	-13425
ErPm	-13426
LaPt	-13427
MgMn	-13428
PaPt	-13429
PuSr	-13430
SrTe	-13431
TcTl	-13432
▁120	-13433
13;17	-13434
21;20	-13435
4.13;	-13436
:1.49	-13437
:1.83	-13438
:37;2	-13439
:78;7	-13440
:9;9;	-13441
▁18.2	-13442
▁50.1	-13443
▁AgGa	-13444
▁AlHf	-13445
▁BaRb	-13446
▁BiLa	-13447
▁CdNd	-13448
▁CdPt	-13449
▁CeGd	-13450
▁CsHg	-13451
▁FePd	-13452
▁HoNp	-13453
▁NaNb	-13454
▁NaPr	-13455
▁NbRh	-13456
▁PbPd	-13457
▁PmTb	-13458
▁PrRu	-13459
0;1.76	-13460
0;1.83	-13461
12;18;	-13462
14;12;	-13463
1;2.37	-13464
3;2.26	-13465
3;2.72	-13466
4;1.64	-13467
4;1.78	-13468
5;1.81	-13469
5;1.97	-13470
6;1.78	-13471
6;1.94	-13472
7;2.72	-13473
8;1.64	-13474
8;1.78	-13475
9;1.72	-13476
9;1.80	-13477
:1.09;	-13478
:1.19;	-13479
:8;10;	-13480
▁128.8	-13481
▁134.4	-13482
▁135.1	-13483
▁167.1	-13484
▁17.21	-13485
▁17.53	-13486
▁17.64	-13487
▁17.86	-13488
▁17.91	-13489
▁18.03	-13490
▁18.11	-13491
▁18.30	-13492
▁18.62	-13493
▁18.76	-13494
▁19.05	-13495
▁19.14	-13496
▁19.29	-13497
▁19.62	-13498
▁19.64	-13499
▁25.12	-13500
0;2.59;	-13501
1;2.32;	-13502
1;2.56;	-13503
2;2.29;	-13504
2;30;38	-13505
2;32;33	-13506
2;33;34	-13507
2;34;42	-13508
2;35;38	-13509
2;42;37	-13510
3;-4;-4	-13511
4;26;18	-13512
4;34;37	-13513
5;+1;+1	-13514
5;2.39;	-13515
6;2.55;	-13516
6;34;42	-13517
7;34;35	-13518
7;35;35	-13519
7;36;35	-13520
7;46;44	-13521
8;28;24	-13522
8;34;36	-13523
8;38;37	-13524
9;2.07;	-13525
12;12;13	-13526
14;16;16	-13527
15;15;17	-13528
18;16;23	-13529
2.12;1.8	-13530
2.30;1.7	-13531
2.43;2.5	-13532
2.63;2.8	-13533
2.83;3.0	-13534
2.88;2.5	-13535
2.93;2.4	-13536
2.93;2.6	-13537
26;29;29	-13538
3.00;2.6	-13539
3.02;2.4	-13540
3.20;2.4	-13541
3.33;3.3	-13542
:24;29;3	-13543
:26;24;3	-13544
:26;36;3	-13545
:30;32;2	-13546
:31;35;3	-13547
:34;44;3	-13548
:37;41;4	-13549
:38;34;4	-13550
:41;40;4	-13551
:41;44;4	-13552
:44;47;4	-13553
14;17;16;	-13554
2.26;2.25	-13555
2.35;2.34	-13556
2.76;2.72	-13557
3.13;3.10	-13558
3.22;3.21	-13559
3.24;3.23	-13560
3.28;3.27	-13561
3.29;3.26	-13562
3.52;3.52	-13563
:+2;-1;+4	-13564
:1.38;1.3	-13565
:1.71;2.6	-13566
:1.72;2.8	-13567
:1.78;3.6	-13568
0;2.02;2.0	-13569
0;2.93;2.9	-13570
1;+1;+4;+4	-13571
1;3.01;3.0	-13572
2.16;2.18;	-13573
2.21;2.19;	-13574
2.26;2.28;	-13575
2.34;2.40;	-13576
2;-2;+4;+3	-13577
2;1.83;1.7	-13578
2;32;26;26	-13579
3.09;3.10;	-13580
3.13;3.18;	-13581
3.22;3.18;	-13582
3.25;3.22;	-13583
3.26;3.27;	-13584
3.33;3.32;	-13585
3;-2;-2;+6	-13586
3;2.87;2.8	-13587
4;2.93;2.9	-13588
5;+5;-2;-2	-13589
6;-2;+3;+4	-13590
6;2.84;2.8	-13591
14;19;30;30	-13592
:+3;-4;-4;+	-13593
:-1;-1;+1;-	-13594
:2.32;2.33;	-13595
:2.51;2.51;	-13596
:2.75;2.77;	-13597
:24;24;25;2	-13598
:3.18;3.19;	-13599
:3.22;3.19;	-13600
:3.28;3.27;	-13601
:3.42;3.42;	-13602
:3.63;3.63;	-13603
:32;30;30;3	-13604
:34;26;34;3	-13605
:35;36;36;3	-13606
:35;38;38;3	-13607
:38;38;39;4	-13608
:40;42;42;4	-13609
:40;44;44;4	-13610
:41;44;44;4	-13611
:+1;-4;+2;+2	-13612
:+3;-1;+3;-2	-13613
:+3;-1;-1;+2	-13614
:+3;-2;+5;+4	-13615
:-1;-1;+2;+3	-13616
:-3;-1;+2;+2	-13617
:14;16;16;16	-13618
:14;17;21;14	-13619
:22;20;22;20	-13620
:23;16;18;26	-13621
:23;26;23;26	-13622
2;+2;+2;+2;-2	-13623
2;-2;-2;+3;+4	-13624
3.02;3.02;3.0	-13625
3;-2;-2;-2;+2	-13626
4;+1;+2;+2;-2	-13627
:32;20;23;26;	-13628
2.31;2.31;2.31	-13629
2.78;2.79;2.78	-13630
3.19;3.19;3.19	-13631
:+1;+5;-2;-2;+	-13632
:2.48;2.48;2.5	-13633
:2.93;2.94;2.9	-13634
:2.99;2.99;3.0	-13635
:+1;-2;-2;+3;+4	-13636
:+2;+3;+1;-2;+6	-13637
:+2;+5;-2;+3;+2	-13638
:+3;+1;+2;-2;+4	-13639
:+3;+2;-4;-4;+2	-13640
:18;18;18;22;18	-13641
:34;34;26;30;35	-13642
45	-13643
KZn	-13644
LaP	-13645
TiF	-13646
UTe	-13647
1;48	-13648
2.82	-13649
3.86	-13650
5;54	-13651
:33;	-13652
MnMo	-13653
NaNd	-13654
NiZr	-13655
PbSn	-13656
RuGe	-13657
ScCl	-13658
SnSe	-13659
SnTm	-13660
TcSi	-13661
TmBr	-13662
▁HoY	-13663
1.14;	-13664
1.41;	-13665
7;1.3	-13666
:21;3	-13667
:67;6	-13668
▁2.76	-13669
▁AgCu	-13670
▁AgIn	-13671
▁BaHf	-13672
▁BaNi	-13673
▁BiEr	-13674
▁BiHo	-13675
▁CaRu	-13676
▁CdPd	-13677
▁CoRh	-13678
▁NpPt	-13679
▁TbTm	-13680
0;2.28	-13681
1;1.61	-13682
1;2.26	-13683
1;29;2	-13684
3;1.83	-13685
3;2.22	-13686
3;2.35	-13687
3;22;2	-13688
5;1.76	-13689
5;2.32	-13690
5;38;4	-13691
6;1.74	-13692
6;2.09	-13693
7;1.74	-13694
7;2.21	-13695
7;23;2	-13696
8;2.00	-13697
9;1.64	-13698
9;2.01	-13699
9;2.27	-13700
9;44;3	-13701
▁134.9	-13702
▁138.6	-13703
▁158.6	-13704
▁159.5	-13705
▁161.5	-13706
▁166.5	-13707
▁167.2	-13708
▁17.13	-13709
▁17.35	-13710
▁17.45	-13711
▁17.63	-13712
▁17.80	-13713
▁18.18	-13714
▁18.23	-13715
▁18.77	-13716
▁18.82	-13717
▁19.04	-13718
▁19.16	-13719
▁19.32	-13720
▁19.36	-13721
▁19.54	-13722
▁24.42	-13723
▁25.09	-13724
▁ABCDE	-13725
0;2.33;	-13726
0;2.82;	-13727
1;+3;+1	-13728
1;1.96;	-13729
1;2.57;	-13730
2;1.96;	-13731
2;2.73;	-13732
2;20;19	-13733
2;35;36	-13734
2;44;43	-13735
3;-1;-2	-13736
3;2.52;	-13737
4;-3;-3	-13738
4;3.04;	-13739
4;45;45	-13740
5;2.31;	-13741
5;2.48;	-13742
5;34;38	-13743
6;36;35	-13744
6;38;46	-13745
6;45;44	-13746
7;2.58;	-13747
7;34;37	-13748
7;38;37	-13749
8;2.87;	-13750
8;26;31	-13751
8;36;37	-13752
:11;13;	-13753
:16;26;	-13754
:16;36;	-13755
:29;30;	-13756
1.00;1.0	-13757
1.00;1.3	-13758
1.67;1.4	-13759
1.72;1.6	-13760
2.23;2.9	-13761
2.74;2.6	-13762
2.75;2.6	-13763
2.98;2.4	-13764
3.34;2.9	-13765
3.36;2.9	-13766
5;18;26;	-13767
:+2;+6;-	-13768
:+2;-2;-	-13769
:-3;-2;-	-13770
:20;34;3	-13771
:24;26;3	-13772
:25;28;2	-13773
:26;27;3	-13774
:26;31;2	-13775
:27;28;3	-13776
:30;33;2	-13777
:31;32;3	-13778
:32;22;2	-13779
:33;32;3	-13780
:38;29;3	-13781
:42;26;3	-13782
:42;32;3	-13783
:48;45;4	-13784
1.49;1.47	-13785
2.10;2.09	-13786
2.10;2.11	-13787
2.72;2.74	-13788
2.78;2.82	-13789
3.00;3.00	-13790
3.02;3.02	-13791
3.14;3.12	-13792
3.24;3.26	-13793
3.27;3.23	-13794
:1.67;2.0	-13795
:15;9;6;9	-13796
:2.23;2.9	-13797
:2.39;2.4	-13798
:26;28;32	-13799
:3.02;2.8	-13800
:64;62;62	-13801
1.23;1.23;	-13802
1;2.52;2.5	-13803
1;2.84;2.8	-13804
2.21;2.23;	-13805
2.31;2.36;	-13806
2.39;2.42;	-13807
2;-2;+3;+4	-13808
2;2.84;2.8	-13809
3.07;3.08;	-13810
3.14;3.12;	-13811
3.21;3.23;	-13812
3.26;3.22;	-13813
3;-3;-3;+2	-13814
3;2.46;2.4	-13815
4;2.01;2.0	-13816
4;29;22;22	-13817
6;2.97;2.9	-13818
6;56;56;56	-13819
7;2.51;2.5	-13820
7;2.52;2.5	-13821
9;2.94;2.9	-13822
:20;17;17;	-13823
:21;18;19;	-13824
:+1;+3;+3;-	-13825
:+3;+3;-3;-	-13826
:2.27;2.29;	-13827
:2.76;2.77;	-13828
:2.77;2.73;	-13829
:20;26;26;3	-13830
:24;24;22;2	-13831
:3.16;3.19;	-13832
:3.38;3.38;	-13833
:30;34;34;3	-13834
:34;32;34;3	-13835
:35;32;32;3	-13836
:38;39;39;3	-13837
:40;37;37;3	-13838
:41;41;41;3	-13839
:42;42;42;4	-13840
:45;44;44;4	-13841
:+1;+3;-2;+4	-13842
:+1;+4;-2;+4	-13843
:+2;+1;-4;+2	-13844
:+3;+1;+1;-3	-13845
:+3;+2;+2;-2	-13846
:+3;+3;-3;-3	-13847
:+3;-2;+1;+6	-13848
:+3;-2;+5;+1	-13849
:-1;-1;+1;+3	-13850
:12;14;13;13	-13851
:15;12;18;12	-13852
:18;26;22;22	-13853
:19;18;18;19	-13854
:22;26;18;22	-13855
:26;23;20;20	-13856
:30;34;34;30	-13857
:32;20;29;20	-13858
1.98;1.98;2.0	-13859
1;-2;-2;-2;+2	-13860
3;-2;-2;-2;-2	-13861
2.36;2.36;2.36	-13862
2.75;2.75;2.75	-13863
2.77;2.78;2.77	-13864
3.28;3.28;3.28	-13865
:2.42;2.43;2.4	-13866
:2.47;2.46;2.4	-13867
:2.56;2.56;2.5	-13868
:2.58;2.59;2.5	-13869
:2.90;2.90;2.8	-13870
:22;22;24;24;2	-13871
:26;26;32;18;2	-13872
:30;34;30;30;3	-13873
:50;50;48;48;4	-13874
:+2;+2;+1;-2;+5	-13875
:+3;+1;+1;+3;-2	-13876
:+3;+2;+1;+2;-2	-13877
:+3;-4;-4;+2;+2	-13878
:-1;+3;+2;+1;+2	-13879
:16;36;26;29;30	-13880
:22;34;28;28;22	-13881
:44;44;44;42;44	-13882
AsO	-13883
BSi	-13884
LaH	-13885
3.81	-13886
4;58	-13887
5;19	-13888
:46;	-13889
LaGe	-13890
OsPt	-13891
OsSi	-13892
PaTm	-13893
RhGe	-13894
SmCl	-13895
TlBr	-13896
TlCl	-13897
▁131	-13898
▁Ccc	-13899
11;10	-13900
13;24	-13901
4;2.1	-13902
:58;4	-13903
:6;6;	-13904
▁2.77	-13905
▁49.5	-13906
▁AcCo	-13907
▁CdGa	-13908
▁CsTi	-13909
▁CuLa	-13910
▁HgMg	-13911
▁LaMg	-13912
▁LiPt	-13913
▁NpPu	-13914
▁PrTb	-13915
0;1.66	-13916
0;2.23	-13917
1;1.63	-13918
1;2.25	-13919
1;2.39	-13920
2;1.84	-13921
2;2.24	-13922
3;1.67	-13923
3;40;3	-13924
4;1.81	-13925
4;2.22	-13926
4;2.26	-13927
4;2.72	-13928
4;32;3	-13929
5;1.61	-13930
5;2.22	-13931
6;2.27	-13932
6;2.31	-13933
8;1.68	-13934
8;2.09	-13935
9;2.71	-13936
:1.08;	-13937
:12;8;	-13938
▁127.2	-13939
▁129.1	-13940
▁167.0	-13941
▁17.17	-13942
▁17.23	-13943
▁17.30	-13944
▁18.15	-13945
▁18.43	-13946
▁19.00	-13947
▁19.06	-13948
▁19.09	-13949
▁19.35	-13950
▁19.40	-13951
▁19.80	-13952
▁20.53	-13953
0;2.36;	-13954
0;2.89;	-13955
0;23;20	-13956
0;32;29	-13957
2;18;20	-13958
2;29;26	-13959
3;1.99;	-13960
3;2.73;	-13961
3;34;32	-13962
3;36;34	-13963
4;2.34;	-13964
4;2.55;	-13965
4;22;38	-13966
5;36;37	-13967
5;41;41	-13968
6;2.05;	-13969
7;2.98;	-13970
7;50;50	-13971
8;2.06;	-13972
9;39;39	-13973
9;41;44	-13974
:15;10;	-13975
:22;17;	-13976
:30;31;	-13977
0.98;1.6	-13978
1.02;1.6	-13979
1.69;2.0	-13980
1.72;2.0	-13981
1.94;1.6	-13982
14;13;13	-13983
16;18;19	-13984
17;18;18	-13985
18;20;24	-13986
18;21;18	-13987
2.29;2.8	-13988
2.91;2.4	-13989
2.98;2.5	-13990
26;26;20	-13991
3.00;2.5	-13992
3.27;3.2	-13993
3.31;3.3	-13994
3.44;2.9	-13995
:-4;-4;-	-13996
:26;33;3	-13997
:30;14;2	-13998
:34;28;2	-13999
:34;33;2	-14000
:34;34;4	-14001
:47;45;4	-14002
:56;57;5	-14003
1.54;1.49	-14004
1.94;1.95	-14005
2.25;2.24	-14006
2.76;2.73	-14007
3.07;3.05	-14008
3.08;3.12	-14009
3.24;3.21	-14010
3.30;3.28	-14011
3.50;3.50	-14012
7;38;36;3	-14013
:1.71;2.4	-14014
:1.98;2.0	-14015
:2.59;2.6	-14016
0;2.87;2.8	-14017
0;2.88;2.8	-14018
1.02;1.02;	-14019
1.89;1.89;	-14020
1.99;1.96;	-14021
1;2.61;2.6	-14022
1;21;24;24	-14023
2.10;2.09;	-14024
2.19;2.22;	-14025
2.29;2.36;	-14026
2.32;2.28;	-14027
2.33;2.29;	-14028
2.35;2.39;	-14029
2.37;2.41;	-14030
2.39;2.34;	-14031
2.40;2.37;	-14032
2.45;2.45;	-14033
2.62;2.62;	-14034
2;-2;+5;+2	-14035
3.14;3.15;	-14036
3.33;3.34;	-14037
3.35;3.34;	-14038
4;2.55;2.5	-14039
5;-2;-2;+2	-14040
7;2.58;2.5	-14041
7;2.92;2.9	-14042
9;2.85;2.8	-14043
:13;16;16;	-14044
:16;12;12;	-14045
:+1;+1;-1;+	-14046
:+1;+3;+2;+	-14047
:+2;+1;+3;+	-14048
:+4;+3;+2;+	-14049
:1.70;1.99;	-14050
:1.70;2.38;	-14051
:2.23;1.77;	-14052
:2.35;2.38;	-14053
:2.82;2.81;	-14054
:29;32;29;2	-14055
:3.19;3.16;	-14056
:3.40;3.40;	-14057
:3.71;3.71;	-14058
:32;32;36;3	-14059
:36;32;34;3	-14060
:40;38;38;3	-14061
:44;50;50;4	-14062
:+1;-2;+5;+2	-14063
:+2;+3;+2;-2	-14064
:+3;-1;+1;-2	-14065
:-1;+2;+1;+1	-14066
:14;12;14;12	-14067
:17;18;14;16	-14068
:18;16;18;17	-14069
:18;18;18;20	-14070
:18;26;16;23	-14071
:19;18;19;18	-14072
:26;20;20;23	-14073
:26;26;26;22	-14074
:34;34;34;34	-14075
1;+1;+2;-2;+4	-14076
:28;8;15;29;2	-14077
2.72;2.72;2.72	-14078
:+4;+1;-2;-2;+	-14079
:+5;+5;+5;+2;+	-14080
:-1;+1;-2;+5;+	-14081
:2.02;2.02;2.0	-14082
:2.60;2.62;2.6	-14083
:2.64;2.63;2.6	-14084
:2.67;2.67;2.6	-14085
:2.75;2.75;2.8	-14086
:2.84;2.84;2.9	-14087
:2.92;2.90;2.9	-14088
:2.97;2.96;2.9	-14089
:44;44;38;38;3	-14090
:48;49;55;55;4	-14091
:+1;-2;+5;+4;+3	-14092
:+2;+2;+2;-2;+5	-14093
:+2;+2;-2;+3;+5	-14094
:+2;+3;+2;-4;+3	-14095
:+2;+3;+5;-2;+2	-14096
:+2;-1;-1;+1;+3	-14097
:+5;+1;+1;-2;+4	-14098
:+5;+2;+1;-2;+4	-14099
:+5;+4;+1;+3;-2	-14100
:-1;+2;-2;+4;+3	-14101
:-1;+3;+1;+1;+3	-14102
:-1;+3;-2;+1;+4	-14103
:14;14;16;12;20	-14104
:22;30;22;34;34	-14105
:34;34;22;28;22	-14106
:44;38;38;38;38	-14107
:48;50;50;50;50	-14108
:2.24;2.24;2.24;	-14109
:3.20;3.20;3.20;	-14110
:3.32;3.32;3.32;	-14111
NO	-14112
HSe	-14113
PaN	-14114
TbW	-14115
VZn	-14116
YbS	-14117
1.24	-14118
1.47	-14119
9;33	-14120
CdIn	-14121
CuPt	-14122
HoPt	-14123
IrTm	-14124
MgPr	-14125
NpRb	-14126
PbTe	-14127
PuRb	-14128
RhSe	-14129
SnZn	-14130
▁PuU	-14131
3.96;	-14132
4.15;	-14133
:1.66	-14134
:1.79	-14135
:71;7	-14136
:74;6	-14137
▁39.6	-14138
▁AcNi	-14139
▁AgPd	-14140
▁AlCe	-14141
▁AuCa	-14142
▁BaMg	-14143
▁BiDy	-14144
▁CdCo	-14145
▁CsNb	-14146
▁CsPd	-14147
▁GaRh	-14148
▁HoRu	-14149
▁InLa	-14150
▁IrNi	-14151
▁NaPt	-14152
▁PaPd	-14153
0;1.86	-14154
0;2.32	-14155
15;20;	-14156
2;1.70	-14157
3;1.65	-14158
3;2.30	-14159
4;33;3	-14160
4;37;4	-14161
5;1.79	-14162
5;1.80	-14163
5;1.87	-14164
5;1.88	-14165
5;2.21	-14166
5;37;3	-14167
5;56;5	-14168
6;2.01	-14169
6;2.03	-14170
6;2.26	-14171
6;2.29	-14172
7;2.78	-14173
8;1.71	-14174
8;1.91	-14175
8;1.93	-14176
8;2.03	-14177
8;31;3	-14178
9;28;2	-14179
9;3.08	-14180
▁134.3	-14181
▁16.86	-14182
▁166.9	-14183
▁168.7	-14184
▁17.39	-14185
▁17.51	-14186
▁17.57	-14187
▁17.67	-14188
▁18.08	-14189
▁18.44	-14190
▁18.63	-14191
▁18.91	-14192
▁19.01	-14193
▁19.31	-14194
▁19.33	-14195
▁19.37	-14196
▁19.48	-14197
▁24.38	-14198
0;2.51;	-14199
0;24;29	-14200
0;26;24	-14201
0;26;34	-14202
1;2.88;	-14203
1;21;20	-14204
2;-3;+4	-14205
2;1.77;	-14206
2;1.93;	-14207
2;1.97;	-14208
2;26;23	-14209
2;26;28	-14210
3;2.74;	-14211
4;+3;-2	-14212
4;2.08;	-14213
4;2.46;	-14214
4;28;26	-14215
4;28;44	-14216
5;2.50;	-14217
5;2.74;	-14218
5;2.78;	-14219
7;1.73;	-14220
7;2.45;	-14221
7;2.56;	-14222
8;2.97;	-14223
8;2.98;	-14224
8;2.99;	-14225
8;26;29	-14226
8;26;34	-14227
8;28;32	-14228
8;29;22	-14229
8;48;48	-14230
9;2.99;	-14231
:19;22;	-14232
:24;29;	-14233
1.48;1.5	-14234
1.85;1.9	-14235
13;14;13	-14236
18;16;16	-14237
18;17;18	-14238
18;22;22	-14239
2.17;2.1	-14240
2.24;1.7	-14241
2.66;2.9	-14242
2.77;2.6	-14243
2.96;2.4	-14244
3.23;2.6	-14245
3.31;2.5	-14246
3.32;3.3	-14247
3.53;3.5	-14248
:+1;+6;+	-14249
:24;29;2	-14250
:33;37;3	-14251
:38;40;4	-14252
:39;37;4	-14253
:44;39;3	-14254
:44;49;4	-14255
:45;44;4	-14256
:45;47;4	-14257
:46;48;4	-14258
:50;44;5	-14259
0;40;40;3	-14260
1.54;1.54	-14261
1.65;1.65	-14262
1.93;1.95	-14263
1.99;1.95	-14264
2.72;2.68	-14265
2.79;2.76	-14266
2;20;18;2	-14267
3.18;3.15	-14268
3.19;3.17	-14269
3.23;3.19	-14270
3.28;3.29	-14271
3.70;3.70	-14272
:-1;+1;+4	-14273
:1.70;2.8	-14274
:1.75;2.4	-14275
:1.77;2.8	-14276
:1.86;1.8	-14277
:2.16;2.1	-14278
:2.55;2.8	-14279
:2.77;2.8	-14280
:20;20;22	-14281
0;2.51;2.5	-14282
0;2.82;2.8	-14283
0;2.83;2.8	-14284
1.87;1.87;	-14285
1.94;1.97;	-14286
1;-2;+4;+5	-14287
1;-3;-3;+3	-14288
1;2.91;2.8	-14289
1;2.94;2.9	-14290
2.42;2.38;	-14291
2.53;2.53;	-14292
3.07;3.06;	-14293
3.10;3.11;	-14294
3.13;3.09;	-14295
3.17;3.15;	-14296
3.29;3.25;	-14297
3.29;3.26;	-14298
3;+1;+1;+2	-14299
3;+5;+3;+3	-14300
3;-2;+5;+5	-14301
4;+4;+1;-2	-14302
4;2.87;2.8	-14303
4;28;44;44	-14304
4;74;74;74	-14305
5;3.03;3.0	-14306
7;1.51;1.5	-14307
7;2.53;2.5	-14308
9;2.96;2.9	-14309
9;39;42;42	-14310
:12;17;17;	-14311
:20;16;16;	-14312
15;14;12;12	-14313
:+2;-2;+4;+	-14314
:-3;-2;-2;+	-14315
:2.25;2.26;	-14316
:2.75;2.78;	-14317
:3.10;3.11;	-14318
:3.14;3.09;	-14319
:3.19;3.21;	-14320
:3.24;3.22;	-14321
:3.24;3.25;	-14322
:3.41;3.41;	-14323
:34;30;34;3	-14324
:35;35;35;3	-14325
:40;38;36;3	-14326
:50;42;42;4	-14327
:+1;+3;+5;-2	-14328
:+1;-2;+3;+4	-14329
:+3;+1;-2;-2	-14330
:+4;+3;-2;+3	-14331
:+5;+3;-2;+1	-14332
:13;13;14;14	-14333
:16;16;14;16	-14334
:16;23;18;26	-14335
:16;26;18;23	-14336
:26;22;26;26	-14337
1;-2;+3;+3;+3	-14338
2.75;2.75;2.9	-14339
3;+2;-2;-2;-2	-14340
:28;25;18;26;	-14341
:2.58;2.58;2.6	-14342
:38;42;38;38;3	-14343
2.30;2.30;2.30;	-14344
4;+1;+1;-2;-2;+	-14345
:+1;-2;-2;+2;+4	-14346
:+2;+2;+3;-2;+4	-14347
:+2;-1;-1;+1;+2	-14348
:+3;+3;-2;-2;+4	-14349
:+3;-2;-2;+4;+3	-14350
:+5;+4;+1;-2;+3	-14351
:-1;+1;+1;+3;+3	-14352
:-3;+2;+2;+4;+4	-14353
:22;22;28;28;34	-14354
:22;28;28;22;34	-14355
:22;34;36;34;42	-14356
:26;20;34;33;40	-14357
:26;26;32;33;31	-14358
:34;30;35;26;34	-14359
:38;38;38;46;46	-14360
:44;42;42;37;38	-14361
[...]
